<unk>	0
<s>	0
</s>	0
▁။	-2.71509
▁	-3.40413
▁ကို	-3.88189
▁သည်	-3.94543
▁ပါ	-3.94906
▁တယ်	-4.08197
▁က	-4.22504
▁မှာ	-4.36326
▁၊	-4.44113
▁မ	-4.47614
▁ရ	-4.52284
▁များ	-4.53116
▁ရှိ	-4.73626
ဲ့	-4.83926
▁ဖြစ်	-4.86638
▁တို့	-4.9425
▁ခ	-4.95918
▁နေ	-4.99359
▁တာ	-5.03187
▁တစ်	-5.0606
▁ပြီး	-5.06941
▁တွင်	-5.08173
▁သော	-5.11742
▁ကျွန်တော်	-5.20537
▁သွား	-5.23896
▁ဘယ်	-5.24896
▁ဒီ	-5.2542
▁လို့	-5.26498
▁တွေ	-5.26816
▁လဲ	-5.27969
▁နဲ့	-5.28842
တဲ့	-5.28946
▁လား	-5.30805
၏	-5.31659
▁နှင့်	-5.3238
▁ခင်ဗျား	-5.32457
▁ပေး	-5.35538
▁နိုင်	-5.44629
▁သူ	-5.45039
▁ဘူး	-5.4545
▁မယ်	-5.45632
▁ကြ	-5.49188
▁မှ	-5.52174
▁လာ	-5.53294
▁သ	-5.6205
့	-5.71877
▁ထား	-5.72356
▁တော့	-5.72633
▁ပဲ	-5.74653
▁လည်း	-5.82167
▁မှု	-5.82805
၍	-5.84706
▁ရေး	-5.85264
▁ရင်	-5.86909
▁ချင်	-5.88596
▁နိုင်ငံ	-5.88652
▁ဆို	-5.88737
▁ရဲ့	-5.97882
▁လိုက်	-5.99486
▁လုပ်	-6.04454
▁ခု	-6.04495
▁ကောင်း	-6.05364
▁ဘာ	-6.06088
▁ခြင်း	-6.07868
▁ပြီ	-6.11237
▁အတွက်	-6.12129
▁နှစ်	-6.14145
▁သည့်	-6.14279
▁မလား	-6.19217
▁လို	-6.20143
▁မြန်မာ	-6.21694
လဲ	-6.23126
▁လူ	-6.28899
▁ရန်	-6.33353
လောက်	-6.34256
▁ပြော	-6.34281
့်	-6.34533
▁ဖို့	-6.3459
ကြီး	-6.37487
▁ဟာ	-6.37491
ဆုံး	-6.3791
▁လေ	-6.40445
▁အချိန်	-6.4056
▁သို့	-6.41169
▁အ	-6.42899
▁မြို့	-6.42916
၌	-6.43216
▁လ	-6.4652
▁ကြီး	-6.47093
လို	-6.49989
▁နေရာ	-6.50728
▁နေ့	-6.51766
▁စား	-6.53073
▁ဟု	-6.54175
▁ဦး	-6.55564
▁ထို	-6.55788
▁ကျွန်တော့်	-6.56161
▁မျိုး	-6.56656
▁ခုနှစ်	-6.57501
▁ဟုတ်	-6.58613
လား	-6.60134
▁ဒါ	-6.60867
▁ထဲ	-6.61389
▁တွေ့	-6.62176
▁ပေါ်	-6.62439
▁မင်း	-6.63272
▁ရောက်	-6.64687
▁တ	-6.65379
င့်	-6.65693
▁လောက်	-6.65829
▁ဖြ	-6.66313
▁သိ	-6.6856
စွာ	-6.70257
င်	-6.71023
▁အဲဒီ	-6.72743
▁အား	-6.73005
▁ကြည့်	-6.73634
▁နာရီ	-6.74468
▁ကား	-6.74553
ရှိ	-6.76462
▁နောက်	-6.78191
▁ခေါ်	-6.78706
▁ပြန်	-6.81284
▁ရက်	-6.82621
▁စ	-6.82819
▁မည်	-6.83886
▁တောင်	-6.86248
▁သေး	-6.87277
သား	-6.88478
▁ယောက်	-6.8961
▁အလုပ်	-6.90594
▁ထွက်	-6.90771
▁ယူ	-6.92626
▁သာ	-6.93295
▁စေ	-6.93558
▁ဘက်	-6.93905
ချင်း	-6.94127
▁လေး	-6.9506
▁ပို	-6.95836
▁တတ်	-6.96938
▁အများ	-6.97026
▁သုံး	-6.97392
▁ရာ	-6.9837
▁ဘာသာ	-7.01091
▁အဖြစ်	-7.01547
▁အခု	-7.02142
စာ	-7.0263
▁ချက်	-7.03362
▁အောင်	-7.03492
▁ပြ	-7.04137
▁ဆရာ	-7.04506
▁ပြည်	-7.05169
▁ဝင်	-7.06594
▁ဝယ်	-7.0908
▁တရုတ်	-7.09219
▁ပင်	-7.09286
▁အိမ်	-7.09291
မလဲ	-7.09914
▁သူ့	-7.10177
▁ပစ္စည်း	-7.10541
▁အတွင်း	-7.1068
▁ပေ	-7.11673
▁သောက်	-7.1194
▁ရေ	-7.13174
▁စကား	-7.13728
▁လမ်း	-7.13871
▁ကြာ	-7.14013
▁စီး	-7.15449
▁ပညာ	-7.16722
▁အဖွဲ့	-7.16928
▁ကြိုက်	-7.17075
စ်	-7.17619
လျှင်	-7.19091
▁ရထား	-7.1941
▁ငွေ	-7.19933
▁အရမ်း	-7.20793
▁လက်မှတ်	-7.21041
▁စာ	-7.22937
စရာ	-7.23309
▁ကျ	-7.23398
▁ထင်	-7.24208
▁တိုင်း	-7.25924
င်း	-7.26955
▁စစ်	-7.27936
ရာ	-7.28192
▁ကလေး	-7.28265
▁ပိုင်း	-7.28669
▁ဒေသ	-7.30293
▁လူမျိုး	-7.32336
▁ထက်	-7.3273
ကုန်	-7.32894
ပွဲ	-7.33709
ကောင်း	-7.3436
▁ပေါ့	-7.3464
ရေး	-7.34711
▁ပုံ	-7.3496
တာ	-7.35389
▁အားလုံး	-7.35433
▁ဟုတ်ကဲ့	-7.35837
ကြောင်း	-7.35899
▁ခဲ	-7.37092
▁လေ့လာ	-7.37661
▁လက်	-7.38221
လာ	-7.38579
က်	-7.38628
▁ကျောင်း	-7.39697
▁လုံး	-7.39915
▁ဟူ	-7.40286
▁လေယာဉ်	-7.4052
ကျ	-7.42119
▁နည်းနည်း	-7.42136
▁အဲဒါ	-7.42941
မ	-7.4384
▁အခန်း	-7.43904
▁အစိုးရ	-7.44052
▁ပေါင်း	-7.4425
▁မူ	-7.44796
▁တိုက်	-7.45727
▁ဆိုင်	-7.46512
▁ကုန်	-7.46661
▁စာအုပ်	-7.46902
▁ကြောင့်	-7.47396
ရောက်	-7.48706
နှုန်း	-7.48736
▁ပါဝင်	-7.48804
ရပ်	-7.48855
▁ဟို	-7.49134
▁အခြား	-7.49175
ာ	-7.49185
▁ထိုင်	-7.49188
စဉ်	-7.49271
▁အထိ	-7.50123
ဆောင်	-7.50263
▁နော်	-7.51109
▁နား	-7.51219
်	-7.51636
ခံ	-7.52239
ဗေဒ	-7.52356
▁ခံ	-7.5309
▁သိပ်	-7.53459
အောင်	-7.54481
▁ရော	-7.5459
▁သူငယ်	-7.54858
▁ကိစ္စ	-7.54882
▁လုပ်ငန်း	-7.5521
နေ့	-7.55837
▁ကာ	-7.56048
ဆို	-7.56662
▁ဘဲ	-7.57046
▁စိတ်	-7.57521
့်	-7.58177
▁ထပ်	-7.58789
ပြု	-7.5898
▁ဆက်	-7.59127
▁ငါး	-7.59136
▁သော်လည်း	-7.60109
စု	-7.60627
ခင်	-7.61128
▁တည်	-7.61903
▁အခါ	-7.6274
▁တက်	-7.62997
▁ဂြိုဟ်	-7.63129
စား	-7.63154
း	-7.63312
▁ဆီ	-7.64036
ပေါက်	-7.64337
▁အရ	-7.64416
▁အိန္ဒိယ	-7.64819
▁အကြောင်း	-7.64829
▁အိတ်	-7.65151
လျက်	-7.66024
▁အမည်	-7.66459
▁အပြင်	-7.6651
▁ဈေး	-7.66583
ဦး	-7.6663
▁ခေတ်	-7.67044
▁မြင်	-7.67181
▁အလွန်	-7.67575
▁ပထမ	-7.679
▁ရာသီ	-7.68482
▁ဘယ်နှ	-7.68982
▁ကြည့်	-7.69196
▁ရပ်	-7.69514
ောက်	-7.69581
▁လှ	-7.69825
▁ခရီး	-7.69835
သို့	-7.70249
▁ည	-7.70409
နယ်	-7.70533
▁လိမ်	-7.71143
▁ဆေး	-7.71291
▁ကြား	-7.71425
▁သူမ	-7.72418
ချုပ်	-7.72469
ယူ	-7.72639
▁နေထိုင်	-7.73776
ပေါင်း	-7.73861
▁ခဏ	-7.74021
▁ပို့	-7.74271
▁နည်း	-7.74964
▁သင့်	-7.7526
မ်း	-7.75342
▁ကျောင်းသား	-7.75371
တော်	-7.75627
န်	-7.75664
▁အင်္ဂလိပ်	-7.75935
ချိန်	-7.76574
▁၂	-7.76603
▁၁	-7.7675
ခန်း	-7.77374
▁အားဖြင	-7.78662
▁အေး	-7.79046
▁ပြောင်း	-7.79162
▁ခွဲ	-7.79201
▁ပတ်	-7.79409
▁ဖူး	-7.79536
ဝါ	-7.79915
▁မိ	-7.80113
.	-7.80423
▁ကမ္ဘာ	-7.80765
▁အရှေ့	-7.81018
ဝင်	-7.81178
▁ယင်း	-7.81514
ရှင်	-7.81566
▁ထုတ်	-7.81864
▁နာမည်	-7.82301
ရေ	-7.83006
▁သား	-7.83254
▁မြောက်	-7.83371
▁စောင့်	-7.83458
▁ဖုန်း	-7.84001
ချက်	-7.84212
▁သဘော	-7.8529
အခါ	-7.85994
▁ရှာ	-7.86485
▁စနစ်	-7.86977
▁အချို	-7.87965
ား	-7.88155
ဝ	-7.88439
▁တူ	-7.89169
▁၃	-7.89259
လေး	-7.89302
▁ဂျပန်	-7.89758
▁နံပါတ်	-7.89778
▁အတိုင်း	-7.89859
သော	-7.89992
▁မျှ	-7.89999
▁သဖြင	-7.90192
▁စတင်	-7.90294
ရ	-7.90436
▁ကျော်	-7.90559
▁ကျေးဇူးတ	-7.90595
▁ကုမ္ပဏီ	-7.91508
▁ကြိုတင်	-7.91965
▁လွတ်လပ်	-7.91969
▁စာရင်း	-7.9222
▁တော်တော်	-7.9268
▁ဗိုလ်ချုပ်	-7.93314
▁တည်း	-7.93417
တူ	-7.9346
▁၅	-7.93713
လက်	-7.94111
▁ကူညီ	-7.94214
တိုက်	-7.94224
▁တက္ကသိုလ်	-7.94227
▁ချေ	-7.94423
▁ဟ	-7.94557
▁ကိုယ်	-7.94662
▁အောက်	-7.94883
နောက်	-7.95456
▁ဘယ်သူ	-7.96068
▁ငါ	-7.97526
▁အသက်	-7.9775
က	-7.97836
၎	-7.97917
ကျွန်မ	-7.97933
▁ပုံစံ	-7.98428
▁စားပွဲ	-7.98879
▁ထိုင်း	-7.98941
▁ရှေ့	-7.99135
▁ဥ	-7.99142
▁ငှက်	-8.00317
▁အသုံးပြု	-8.0033
▁အောင်ဆန်း	-8.00421
▁တကယ်	-8.00736
▁ခန့်	-8.01864
သ	-8.01921
လုံး	-8.01945
▁ထည့်	-8.02076
▁တခြား	-8.02335
▁ထိ	-8.02385
သူ	-8.02755
▁အစားအ	-8.03161
▁ဆင်း	-8.03432
ပြ	-8.04671
▁တင်	-8.04793
▁ဆောင်ရွက်	-8.05302
▁သို့သော်	-8.05336
ပိုင်း	-8.06936
▁ခွင့်	-8.07365
▁စီ	-8.07517
▁ယခု	-8.07856
▁အတူ	-8.08564
▁ထမင်း	-8.08578
▁ဒေါ်လာ	-8.08967
▁ပိတ်	-8.09062
အ	-8.09671
သီး	-8.09972
▁၁၀	-8.10608
▁ညနေ	-8.11047
စေ	-8.11153
▁အဓိက	-8.11575
၈	-8.11667
▁ဖ	-8.11778
▁လေ့	-8.11967
▁မိန	-8.12174
▁အပင်	-8.12264
တယ်	-8.12402
▁မြေ	-8.12519
▁ကာလ	-8.12739
▁အခြေခံ	-8.1322
▁တိုးတက်	-8.13254
▁မင်္ဂလာ	-8.1328
▁ချိန်	-8.13473
▁တုန်း	-8.13476
ချ	-8.13636
မျှ	-8.1365
▁မန္တလေး	-8.13767
ဆိုင်	-8.13788
တ်	-8.13877
ာတွင်	-8.14046
▁အဆင်ပြေ	-8.14323
ပြင်	-8.14551
▁ခင်ဗျာ	-8.14826
ဆက်	-8.15212
▁မိမိ	-8.1547
တင်	-8.15779
▁ဖွင့်	-8.16242
▁ကျောက်	-8.16521
▁စီးပွား	-8.16687
▁အပေါ်	-8.16722
▁ပြောင်းလဲ	-8.16862
▁မျက်နှာ	-8.17239
▁၁၉	-8.17561
ရိုက်	-8.17645
▁ပြု	-8.17716
▁ဗြိတိသျှ	-8.17722
ထား	-8.17865
▁အရင်	-8.18244
▁စသည်	-8.19093
▁မိုင်	-8.19524
▁တော်	-8.19529
▁နိုင်ငံခြား	-8.19617
ထွက်	-8.19666
▁၄	-8.20143
ပေါ်	-8.20296
▁မှန်	-8.20556
▁ဌာန	-8.20972
▁အုပ်ချုပ်	-8.21078
▁ဒုတိယ	-8.21223
▁သလို	-8.21512
▁သေချာ	-8.21667
▁မနက်	-8.22131
▁ရင်း	-8.22203
▁ဘတ်စ်ကား	-8.22444
▁သတ်မှတ်	-8.2245
▁အသစ်	-8.22452
ထိုး	-8.22549
မှု	-8.22628
▁ဘုရား	-8.23174
▁အမေရိကန်	-8.23664
▁လိုအပ်	-8.23716
ခင်း	-8.23779
▁စောင်	-8.23989
▁အိပ်	-8.24327
▁ရောင်း	-8.24463
▁ပြုလုပ်	-8.24901
▁တပ်	-8.24988
▁၂၀၀	-8.25043
▁ထို့	-8.25155
▁ပ	-8.2517
▁ငယ်	-8.25647
ပေး	-8.25819
စကား	-8.26009
▁နောက်ဆုံး	-8.26269
▁ကိုရီးယား	-8.26836
▁ပါရ	-8.26884
နက်ဖြန်	-8.27397
ီ	-8.27474
▁ကောင်	-8.28621
▁ခင်	-8.28634
▁ရုပ်ရှင်	-8.28736
ဒ်	-8.2881
▁ဘ	-8.28895
▁စု	-8.29105
ကြောင့်	-8.2915
▁ကျွန်တော့	-8.29326
▁ပြည့်	-8.29587
▁ဝတ်	-8.29596
▁ဖွဲ့စည်း	-8.29975
များ	-8.30156
ဥတု	-8.30506
▁ရှေး	-8.30608
▁အနောက်	-8.30845
▁ကျေးဇူးပြု	-8.31325
▁လက်ခံ	-8.31476
ကြောင့်	-8.31831
ကြား	-8.31981
▁ကျွန်း	-8.32059
▁ငှား	-8.32097
▁တရား	-8.32609
▁မီ	-8.3262
▁ရှင်း	-8.32806
ပြား	-8.32901
▁အရပ်	-8.33011
▁ထုတ်လုပ်	-8.33299
"	-8.33358
ချို့	-8.33528
တောင်	-8.33645
ရုံ	-8.33741
▁ကဲ့	-8.33832
▁စျေး	-8.34242
▁ကြိမ်	-8.3437
▁၇	-8.3455
ပါ	-8.34569
ခုံ	-8.3478
၇	-8.35232
▁အမျိုးသား	-8.35358
▁အထူး	-8.35661
▁ပိုက်ဆံ	-8.36012
▁သံ	-8.36243
▁ပင်လယ်	-8.36465
▁ရောဂါ	-8.367
▁ဖတ်	-8.36906
▁အရာ	-8.36994
▁ဆ	-8.37128
▁အခြေအနေ	-8.3742
▁သန်း	-8.37666
ကွက်	-8.37888
နစ်	-8.37963
▁တိုင်	-8.38249
လ	-8.38296
▁ရာစု	-8.38314
▁ပြင်	-8.38318
▁အမေ	-8.38665
ဘက်	-8.38675
▁ပြဿနာ	-8.3882
▁ချင်း	-8.39224
▁၈	-8.39338
▁မိုး	-8.39369
▁သတင်း	-8.39474
▁ကျေးဇူး	-8.39702
၉	-8.3973
ဖွယ်	-8.40153
▁ပြန်လည်	-8.40337
ာခိုင်	-8.40377
▁ပါ့	-8.40385
ဖော်ပြ	-8.40442
▁ကောင်းကောင်း	-8.40895
,	-8.40977
▁ဝတ္ထု	-8.41125
▁ပူ	-8.41145
▁သတ္တ	-8.41227
ကြာ	-8.41528
ထင်ရှား	-8.4159
ရီ	-8.41781
▁မျောက်	-8.41789
▁မြစ်	-8.41936
▁မြင်း	-8.42048
▁အစ	-8.42096
▁ဒါပေမယ	-8.42377
▁ဗမာ	-8.42446
▁၁၉၄	-8.42614
▁ဘူတာ	-8.43227
▁ဒါပေမ	-8.43254
▁တိုး	-8.43275
▁၆	-8.43499
▁ခုံ	-8.43956
▁အနက်	-8.44
▁ခေါင်းဆောင်	-8.44095
၂	-8.44668
ဪ	-8.44681
▁လွန်း	-8.44807
▁မြို့တော်	-8.44996
န်း	-8.45053
▁နိုင်ငံတော်	-8.4523
▁ကစား	-8.45315
▁စဉ်းစား	-8.45454
▁ရွာ	-8.45831
ရန်	-8.45997
▁မေ	-8.46226
အစည်း	-8.46486
▁ယဉ်ကျေး	-8.46499
▁သင်	-8.46789
s	-8.47143
▁အရောင်	-8.47714
▁ပေါက်	-8.47791
▁အကြီး	-8.47886
▁မြန်	-8.48314
၅	-8.48548
▁""	-8.48551
ို့မဟုတ်	-8.48612
ငွေ	-8.48712
ရောင်	-8.48899
သွား	-8.48935
▁အတော်	-8.48971
▁နာ	-8.49122
▁ငါ့	-8.49153
၆	-8.49167
▁အားကစား	-8.49327
▁တန်း	-8.49577
ဏ	-8.49671
ပုံ	-8.5027
▁ဟင်း	-8.50367
ရက်	-8.50647
▁အမျိုးမျိုး	-8.50926
▁သိပ္ပံ	-8.50992
▁မွေး	-8.51025
▁အနီး	-8.51511
▁အာရှ	-8.51732
▁ခေါင်း	-8.51793
▁ဗုဒ္ဓ	-8.52045
▁ဖြတ်	-8.52105
ထုတ်	-8.52288
▁အမျိုးအစား	-8.52532
▁ဆေးလိပ်	-8.52547
▁မစ္စတာ	-8.52552
▁ကျန်းမာ	-8.52556
▁လျှောက်	-8.52951
▁စိုက်ပျိုး	-8.53348
▁လွန်	-8.53523
▁အကောင်း	-8.53906
▁သမီး	-8.54121
▁သမိုင်း	-8.54191
▁ကွန်	-8.54261
▁ပန်း	-8.54421
တန်	-8.54437
▁မေး	-8.5457
▁စိတ်ဝင်စား	-8.55013
▁သစ်	-8.55373
▁အသား	-8.55527
▁ပျောက်	-8.5611
စပ်	-8.56637
ပါး	-8.56736
▁ခံစား	-8.56836
▁ဝန်ကြီး	-8.56854
▁အမြန်	-8.56863
ရည်	-8.56961
▁တာဝန်	-8.57164
▁မြန်မာ့	-8.57224
▁အင်္ကျီ	-8.57347
ံ	-8.57497
▁ဆရာဝန်	-8.57639
▁နားလည်	-8.5766
င့်	-8.57865
▁ကျန်	-8.58151
▁ဓာတ်	-8.58183
▁၁၉၉	-8.58334
၀	-8.5844
▁ကော်ဖီ	-8.58487
▁ဘေး	-8.58514
ခြား	-8.58527
ပစ္စည်း	-8.58615
ပွား	-8.58627
▁ဆယ်	-8.58744
▁နောက်ကျ	-8.58785
▁၁၂	-8.58964
▁"	-8.59132
က်တမ်	-8.59361
ပျူ	-8.59494
▁ပတ်သ	-8.59582
▁အစာ	-8.59893
▁ကြိုးစား	-8.59956
▁ချ	-8.5996
▁ပွဲ	-8.60022
▁ဘဝ	-8.60056
▁တွဲ	-8.60162
▁ခရီးသွား	-8.6021
▁အားနာ	-8.60268
သွင်း	-8.60386
▁ရွှေ	-8.60446
ု	-8.61343
▁ကျင်းပ	-8.61937
ခ	-8.61993
▁အောင်မြင်	-8.62025
▁ဥပဒေ	-8.62115
နှစ်သက်	-8.62724
▁မိသားစု	-8.62838
▁အိပ်စင်	-8.62871
▁မီး	-8.62874
▁အသင်း	-8.63044
ရာသီ	-8.63208
▁ကွာ	-8.63359
▁ကော	-8.63646
▁သီချင်း	-8.63756
▁ဝန်ဆောင်	-8.63763
▁အလယ်	-8.63769
မြင်	-8.64279
သမား	-8.64418
▁ကျမ်း	-8.64555
▁ပြောပြ	-8.6467
▁ရုံး	-8.64712
၁	-8.64793
▁ဝေး	-8.64876
နှစ်	-8.65083
▁စားသောက်ဆိုင်	-8.65613
▁လောက	-8.65763
နား	-8.66101
လည်	-8.66123
▁အပူ	-8.66154
▁စာပေ	-8.66221
စုံ	-8.66245
လို့	-8.66353
▁ခါ	-8.66425
▁၁၉၆	-8.66576
ဟုတ်	-8.66645
▁ကြို	-8.66777
▁သဘာဝ	-8.67139
▁ပါတီ	-8.67213
▁ကမ္ဘာ့	-8.67413
▁ဖွံ့ဖြိုး	-8.67468
▁ယုံကြည်	-8.67488
▁ရယ်	-8.67931
▁တက္ကစီ	-8.68421
နာ	-8.6848
▁ရှာဖွေ	-8.68535
ပ်	-8.68602
ကြေး	-8.6867
▁ယ	-8.68727
▁ရှည်	-8.68855
▁အရွယ်	-8.68882
ကား	-8.68993
▁ကီလို	-8.69386
▁အနည်းငယ်	-8.69403
▁မှား	-8.69542
ကြီးမား	-8.69614
▁စက်	-8.69716
တက်	-8.6987
ရံ	-8.69887
ကူး	-8.70014
▁အလေး	-8.70066
▁အမှတ်	-8.70253
▁၉	-8.70315
▁အာဏာ	-8.70353
▁ယူဆ	-8.70433
▁အသံ	-8.70509
▁ဆိုး	-8.70661
▁စစ်ဆေး	-8.70714
▁မနေ့	-8.70765
လမ်း	-8.7099
▁အကျိုး	-8.71033
ယာ	-8.71185
▁ဒါမှမ	-8.71339
▁မိဘ	-8.71387
စီး	-8.7172
လက်မှတ်	-8.72051
▁ပြိုင်	-8.72141
▁ခေါက်	-8.72538
▁မွန်	-8.72559
▁ခွက်	-8.7321
ာက်ထပ်	-8.73637
▁တိရစ္ဆာန်	-8.73682
ကို	-8.74147
▁ရိုက်	-8.74417
▁၁၉၈	-8.74445
▁သတ္တု	-8.74586
▁သေ	-8.74597
▁၁၅	-8.74617
▁ဆရာမ	-8.74668
တလော	-8.74754
▁၂၀	-8.74934
တိုင်းပြည်	-8.74936
အိတ်	-8.75178
▁ခက်	-8.75416
▁ဆုံးဖြတ်	-8.75436
▁စုစု	-8.75571
စင်	-8.75576
▁အတန်း	-8.75647
▁တန်	-8.75853
▁စွယ်စုံကျ	-8.75892
တန်း	-8.75906
▁ဖြစ်စေ	-8.75918
▁စိတ်မ	-8.76048
ရင်း	-8.76163
▁အကူအညီ	-8.76385
▁ဝက်	-8.76518
▁ပစ်	-8.76763
▁ဝက်ဝံ	-8.76918
ပြီး	-8.76986
▁ခန်း	-8.77033
▁ရှင်	-8.77115
င်ဘာ	-8.77123
▁တပ်မတော်	-8.77428
▁အရက်	-8.77923
▁အဝတ်	-8.78137
▁ခြောက်	-8.78236
နည်း	-8.7839
၃	-8.78476
▁တည်ဆောက်	-8.78479
▁အဲ့ဒီ	-8.78482
▁အခွန်	-8.78489
▁နားထောင်	-8.7851
▁ချောင်း	-8.78608
၄	-8.78617
ပတ်	-8.7865
မီတာ	-8.78705
▁ရုပ်	-8.78734
ဝေ	-8.79311
သည်	-8.7946
▁ဖျက်	-8.79465
▁ဝမ်းသာ	-8.79603
▁န	-8.79657
မဂ္ဂ	-8.79712
▁အမြဲ	-8.80149
ဆီး	-8.80169
▁ပေမယ	-8.80257
▁အဆောက်အဦ	-8.80269
▁ဝါ	-8.80286
▁ကျပ်	-8.80461
-	-8.80618
▁အစီအစဉ်	-8.80619
ပြောင်း	-8.81502
▁များများ	-8.81715
ရထား	-8.81767
▁နှင	-8.81826
▁ဘတ်	-8.81909
ိုက်ခိုက်	-8.81976
▁ကိုယ့်	-8.82601
▁ဆေးရုံ	-8.82878
စီ	-8.83613
▁လမ်းလျှောက်	-8.83933
▁ဆက်သွယ်	-8.84016
▁အဆို	-8.84112
တည်	-8.84266
ရှား	-8.84313
▁၃၀	-8.8443
▁သိမ်း	-8.84864
▁ဖက်	-8.84881
▁ဆန်	-8.85
စ	-8.85102
တ	-8.85121
▁စဉ်	-8.85207
▁သယ်	-8.85299
သက်	-8.85641
▁ပျက်	-8.85813
ွေ	-8.85971
▁မို့	-8.86001
▁ခြေ	-8.86021
e	-8.86166
▁ကြေညာ	-8.86198
တော့	-8.86244
▁အရေးကြီး	-8.86293
ည်ထောင်	-8.86507
ယ်	-8.86638
▁အထက်	-8.86723
▁ဖြည့်	-8.86852
ယ့်	-8.86918
▁၁၉၇	-8.8714
▁အိုး	-8.87162
▁နွေ	-8.87171
’	-8.87325
ပင်	-8.87327
▁အမျိုးသမီး	-8.87327
ရောပ	-8.87335
▁ပင်ပန်း	-8.87485
ကျောင်း	-8.87509
▁ဖေဖေ	-8.8767
ကပ်	-8.87729
▁နင်	-8.88179
ဆိပ်	-8.88307
▁ပြည်သူ	-8.88319
▁ရုံ	-8.88744
▁လူ့	-8.88824
▁ကိုးကွယ်	-8.89665
▁ပြည်ထောင်စု	-8.89668
▁သမ္မတ	-8.89732
တရား	-8.89817
▁သတင်းစာ	-8.89833
▁အသုံး	-8.89989
ဆင့်	-8.89998
▁စားသောက်	-8.90263
▁မကြာခ	-8.90287
▁စမ်း	-8.90594
▁လက်ဖက်ရည်	-8.90857
▁ထံ	-8.90875
သာ	-8.90926
▁ထည့်	-8.91025
▁ပြင်ဆ	-8.91098
▁ရှမ်း	-8.91133
ဂိတ်စ်	-8.91347
▁လုံးဝ	-8.91368
▁နောင်	-8.91583
▁နယ်	-8.9159
▁သင်္ဘော	-8.91595
▁အပ်	-8.9168
▁အစ်ကို	-8.9206
▁ဓာတ်ပုံ	-8.92088
▁တဆိတ်	-8.92097
▁သက်သာ	-8.92292
▁ထိုး	-8.92378
ွန်	-8.93028
▁တွင်း	-8.93056
▁လှုပ်ရှား	-8.93387
▁၁၁	-8.93431
▁ကတည်း	-8.94415
လီ	-8.94688
▁အကုန်	-8.9535
ပြန်	-8.95391
▁ပျော်	-8.95408
▁အင်း	-8.9553
‘	-8.95763
▁တန်ဖိုး	-8.95767
▁ပြတင်း	-8.95778
ဲ	-8.95785
▁ဗျာ	-8.95801
▁လုပ်ကိုင်	-8.95909
စည်း	-8.96052
▁အစား	-8.96453
▁အပါ	-8.96666
▁အလို	-8.96685
ဆေး	-8.96987
ာပူ	-8.96992
▁စင်္က	-8.97029
ထပ်	-8.97045
▁တိုင်းရင်း	-8.97103
▁ပြုစု	-8.97143
နှံ	-8.9715
▁တောင်တန်း	-8.97159
▁အင်္ဂါ	-8.97309
ုပ်	-8.97349
▁အဆင့်	-8.97368
အဝင်	-8.97393
▁ရွေး	-8.97634
သုံး	-8.98357
ိ	-8.98422
▁ဓာတု	-8.98465
▁ညာ	-8.98671
▁အမှန်	-8.98724
y	-8.98784
ဝန်ထမ်း	-8.98882
▁လွတ်	-8.99138
▁မေ့	-8.99149
သတ်	-8.99162
▁ပြေး	-8.99208
▁လွယ်	-8.99484
▁ပြုပြင်	-8.99679
ပ	-8.99713
▁ပျော်ရွှင်	-9.00034
▁တို	-9.00139
▁ပါစေ	-9.00414
စိုက်	-9.0054
▁ချစ်	-9.00787
▁အခွင့်အ	-9.00984
နီ	-9.01008
▁ကိုင်	-9.01149
ကွင်း	-9.01461
ထ	-9.01606
လွှာ	-9.01645
▁ဆံပင်	-9.02257
▁မဂ္ဂဇင်း	-9.02259
▁နံနက်	-9.02261
▁ပျက်စီး	-9.02279
▁ဂျီဒီပီ	-9.02285
▁တစ်လျှောက်	-9.02425
ဆွဲ	-9.02958
ဘာ	-9.034
▁ဒြပ်	-9.03612
▁လွှတ်	-9.03642
▁အုပ်စု	-9.03656
▁စကားပြော	-9.03659
▁တနင်္	-9.03671
ပူ	-9.03844
ရိတ်	-9.03861
▁ထ	-9.04008
ေလ်	-9.04673
▁အာမခံ	-9.04937
▁အနေဖြင	-9.04981
▁ဆွေးနွေး	-9.04983
▁ထို့ကြောင	-9.05012
▁ဝိုင်	-9.05108
တွဲ	-9.05312
▁စောင့်	-9.05374
င်းလျာ	-9.0543
▁ဆွဲ	-9.05488
▁သိုး	-9.05571
သံ	-9.05609
▁ဝမ်	-9.05704
▁လျှော့	-9.05712
ပညာ	-9.05917
▁ဘုရင်	-9.06039
ရုံး	-9.06168
▁ပုံမှန်	-9.06424
▁အချက်အ	-9.06741
နု	-9.07001
ိုက်	-9.07038
ူ	-9.07049
ပြည်တော်	-9.072
▁လေကြောင်း	-9.07248
ယျ	-9.07306
▁စပါး	-9.07527
ထဲက	-9.07688
▁ဒီမိုကရ	-9.07805
▁မြေအောက်	-9.07806
▁အာ	-9.07892
▁စာမေးပွဲ	-9.07899
▁လက်မ	-9.07974
▁ဘူမိ	-9.08044
စက်	-9.0822
▁သာယာ	-9.08276
▁ပူး	-9.08944
▁တောင်းပန်	-9.09206
▁လက်ထပ်	-9.09292
▁ဆက်ဆံ	-9.09433
ကန်	-9.09491
▁မျက်စိ	-9.09863
▁တော	-9.10179
▁ကြောက်	-9.10226
မာ	-9.10319
ပိုင်	-9.10623
လုပ်	-9.1065
▁မိန်းကလေး	-9.10655
▁ခန့်မှန်း	-9.10662
▁ဘန်က	-9.10662
▁ဘွဲ့	-9.10773
ယား	-9.10918
▁အင်အား	-9.10966
▁အကြား	-9.11078
ခွဲ	-9.11372
▁အပို	-9.11586
▁အနေ	-9.11589
ယ	-9.11625
ထောင်	-9.11797
ဖွား	-9.11822
▁ဒ	-9.12
▁အရသာ	-9.12027
▁အုပ်	-9.12378
▁ဆောင်	-9.12661
▁ဗဟို	-9.12674
▁မဟာ	-9.12789
▁ပညာရှ	-9.13023
မင်း	-9.13137
▁ဟောင်း	-9.13213
▁ဖိနပ်	-9.13216
▁ရေခဲ	-9.13254
တွင်	-9.13331
အား	-9.13436
ိုင်း	-9.13447
▁မတ်	-9.13528
▁မော်လမြိုင်	-9.13619
▁ဒုက္ခ	-9.13754
အပြား	-9.13819
▁ဒေါ်	-9.13825
▁ဝိုင်း	-9.13845
ရိုး	-9.13879
▁C	-9.13948
▁နီး	-9.14064
▁ပြည်သူ့	-9.14104
လွန်	-9.14295
▁ညီ	-9.14342
ဒီ	-9.14397
▁သွေး	-9.14683
▁ရွေးချယ်	-9.15136
▁ဥပမာ	-9.15137
▁ရှုခင်း	-9.15143
▁ဟယ်	-9.15177
▁ဂုဏ်	-9.15185
▁လူသား	-9.15378
▁အကြာ	-9.15414
▁သစ်ပင်	-9.1543
မှူး	-9.15758
▁အရည်အ	-9.15825
▁ဦးဆောင်	-9.15881
သတ္တ	-9.16047
▁ရောင်	-9.1656
▁ကိုယ်တိုင်	-9.16608
သေတ္တာ	-9.16633
▁ကုလ	-9.16633
ေစီ	-9.16671
▁ပုဂံ	-9.16673
▁ဧည့်သည်	-9.16678
▁တောင်းဆို	-9.16699
▁မေမေ	-9.16704
▁အကြိမ်	-9.16719
ခွင့်	-9.17083
တည်း	-9.17148
တေး	-9.17395
▁အဆုံး	-9.17662
ို	-9.17826
ထည်	-9.18102
▁မှတ်	-9.18197
▁ကာကွယ်	-9.18232
▁ရည်ရွယ်	-9.18235
▁အထက်တန်း	-9.18256
▁ပြင်သစ်	-9.18258
▁ကောင်စီ	-9.1827
ထဲ	-9.18285
▁ဘဏ်	-9.18294
▁ခရီးသည်	-9.18302
▁မှတ်တိုင်	-9.18432
▁ပတ်ဝ	-9.18463
i	-9.18464
ရိယာ	-9.18466
▁အဖေ	-9.18484
▁လှပ	-9.18596
ဆင်း	-9.18697
အင်း	-9.18982
▁အမြဲတ	-9.18989
▁၁၈	-9.19081
▁နေ့လယ်	-9.19401
▁အဓိပ္ပါယ်	-9.19788
▁လည်ပတ်	-9.19834
▁သွားလာ	-9.19868
▁ဆဲလ်	-9.19913
▁ဆောင်း	-9.20159
ကောင်	-9.20174
▁စာရေး	-9.203
မီ	-9.20345
ဖြူ	-9.2072
▁ခိုင်း	-9.20884
သစ်	-9.20998
▁စီမံ	-9.21168
လေ	-9.21304
▁အစ်မ	-9.21437
▁အရေးပါ	-9.21459
▁မြေပုံ	-9.21496
ဝင်း	-9.21677
မို	-9.21788
▁တိုက်ပွဲ	-9.2182
▁အသီး	-9.21915
▁ကျွေး	-9.21973
▁စုံ	-9.22171
▁သော်	-9.22177
ဖော်	-9.22302
မန်	-9.22336
▁လှည့်	-9.2241
ထွန်း	-9.22572
၀၀၀	-9.22666
▁လုပ်ဆောင်	-9.2275
မတ်	-9.22879
▁ကြယ်	-9.22902
▁ပုဂ္ဂိုလ်	-9.23074
မြင့်	-9.23123
▁သင်ယူ	-9.23171
▁လျှပ်စစ်	-9.23206
▁ဝ	-9.23235
▁ခွင့်ပြု	-9.23238
▁ညစာ	-9.23487
▁အချက်	-9.23686
ဟင်း	-9.23759
▁ရဲ	-9.2416
▁ဆိုင်ရ	-9.24464
▁အမှု	-9.24506
မှန်	-9.2451
မြောက်	-9.24739
▁ကြိုးပမ်း	-9.24741
▁ဘောလုံး	-9.24742
▁ထိန်းသိမ်း	-9.24747
▁ရှေးဟောင်း	-9.24749
▁ထွက်ခွာ	-9.24753
▁ဘာသာပြန်	-9.24863
▁အရေး	-9.24898
▁ခရီးဆောင်	-9.25
ဆိုး	-9.25065
▁စိုး	-9.25149
ဥ	-9.25159
▁ရင်းနှီး	-9.25288
▁အမြင့်	-9.25458
▁ပြေ	-9.25508
▁စတု	-9.25686
လွင်	-9.25819
ချာ	-9.25882
▁အိမ်ထောင်	-9.25953
▁ကွေ့	-9.25974
▁အပိုင်း	-9.2628
▁အမွေး	-9.26361
▁ကိုယ်စားလှယ်	-9.26436
မြို့	-9.26448
▁ပိုင်ဆိုင်	-9.26464
▁မွေးနေ့	-9.26548
ခေတ်	-9.26596
▁၁၃	-9.2672
လိုက်	-9.26727
▁ဂိတ်	-9.26816
▁ဧရ	-9.27107
▁ရှစ်	-9.27137
က်ထက်	-9.27639
▁၁၆	-9.2768
▁ယာဉ်	-9.27953
d	-9.27977
▁ဖမ်း	-9.2804
စလင်	-9.28104
▁ဩဂုတ်	-9.2816
▁မျှော်လင့်	-9.2816
▁သကဲ့	-9.28172
▁ကွဲပြား	-9.28174
ဖြတ်	-9.28174
▁တစ်ခါတစ်	-9.28177
▁မိုးရွာ	-9.28178
▁ကူး	-9.28188
▁တယ်လီဖုန်း	-9.28193
▁ပြည်တွင်း	-9.28235
▁စနေ	-9.28266
▁နေမကောင်း	-9.28274
▁လိပ်စာ	-9.28327
▁လူငယ်	-9.28328
လွှတ်	-9.28329
▁လက်အောက်	-9.28473
စစ်	-9.28686
▁နတ်	-9.29184
ကွဲ	-9.29535
▁ဇန်နဝါရီ	-9.29914
▁ဆန့်ကျင်	-9.29915
▁အဲ့ဒါ	-9.29917
▁အစ္စလာမ်	-9.29948
▁ထောက်ခံ	-9.29959
▁သင်ကြား	-9.29972
▁သင်တန်း	-9.29985
▁ကောင်းကင်	-9.3005
▁ရွေးကောက်	-9.30131
▁မွတ်	-9.30223
သော်လည်း	-9.30257
တပ်	-9.30316
▁ကဲ	-9.30651
ကာ	-9.30838
ခေါင်း	-9.31075
ခေါ်	-9.31577
ရိက	-9.31684
▁အချင်း	-9.31693
▁နှင့်အတူ	-9.31701
တကာ	-9.31702
ရာဇ်	-9.31708
▁ဦးသန့်	-9.31715
▁သက်ရှိ	-9.31741
▁အထုပ်	-9.31776
နိုင်ငံ	-9.31806
▁ထွန်းကား	-9.31845
▁လက်နက်	-9.31856
▁မောင်း	-9.31857
▁ဖွဲ့	-9.32182
▁ပေမ	-9.32208
▁ကချင်	-9.32241
ဆာ	-9.32266
ကျက်	-9.32613
ပန်း	-9.32639
▁စို	-9.32694
မူ	-9.32713
▁ကပ်	-9.32892
နက်	-9.32989
▁လွဲ	-9.33048
ဖြည်းဖြည်း	-9.33116
▁ကွဲ	-9.33185
ာ်	-9.33337
▁မှန်း	-9.33444
▁ဂရု	-9.33452
▁ဟန်	-9.3349
▁အထူးသဖြင	-9.33518
▁မျက်လုံး	-9.33524
▁ရေကူး	-9.33673
▁ဒီဂ	-9.33687
▁တံခါး	-9.33726
စိတ်	-9.33983
▁အရေ	-9.3413
▁အဆင်သင	-9.34355
▁ကွယ်	-9.34448
▁၁၇	-9.34476
ခက်ခဲ	-9.34537
▁သဘောတူ	-9.34624
ဆင်	-9.34723
er	-9.34892
▁၁၉၅	-9.34945
ယောက်	-9.35102
ပြသ	-9.35134
▁ခပ်	-9.35168
▁ကျွန်	-9.35341
ကြည်	-9.3536
▁အပြည်ပြည်	-9.35372
▁ထိခိုက်	-9.35372
▁ယောက်ျား	-9.35384
▁ပါးစပ်	-9.35388
▁ကိုယ်ပိုင်	-9.35416
▁သုံးစွဲ	-9.35434
န	-9.35522
▁အစိတ်	-9.35563
▁ထူးခြား	-9.35645
ပျော်	-9.35652
လင်း	-9.35698
▁ဇီဝ	-9.3576
သေးငယ်	-9.35761
▁ကောက်	-9.35849
အပိုင်း	-9.35969
▁နှုန်း	-9.36065
ောင်	-9.36269
နေ	-9.36336
▁ပန်းခြ	-9.36486
တိုင်	-9.36658
▁အစော	-9.37215
တစ်	-9.37222
▁ခရိုင်	-9.37252
▁ပိုင်	-9.37268
▁စစ်တပ်	-9.37336
▁ဖွင့်	-9.3742
အိမ်	-9.37533
ာန်	-9.37569
တွေ့	-9.37581
ဖက်	-9.37638
▁ပမာ	-9.37723
ကိန်း	-9.378
အတွက်	-9.37832
▁၅၀	-9.37839
▁ဆဲ	-9.37924
တို	-9.37985
ရိုင်း	-9.38075
မှတ်	-9.38283
ပျက်	-9.38306
▁ဝါဒ	-9.38426
▁ဆု	-9.38526
ဒါ	-9.39087
▁ကယ်ဆယ်	-9.39096
▁ရုတ်တရ	-9.3918
▁အအေးမိ	-9.39184
▁အယူဝါဒ	-9.39185
▁နယ်မြေ	-9.39196
နိုဝ	-9.392
▁ငြိမ်းချမ်း	-9.39217
▁လိမ့်	-9.39238
▁အမှား	-9.39268
▁အာဖ	-9.39407
▁အရာရှိ	-9.39806
▁၂၅	-9.39857
လုံလောက်	-9.39885
▁အမျိုး	-9.40966
▁ခရစ်ယာန်	-9.41141
▁ဝေါဟာရ	-9.41141
▁ဝါသနာ	-9.41141
▁အဆင့်အတန်း	-9.41142
▁ရိုးရိုး	-9.41143
▁မိန်းမ	-9.41309
▁၁၄	-9.41333
▁S	-9.41532
▁ဖွား	-9.41564
▁ပြင်းထန်	-9.41605
▁မုန်တိုင်း	-9.41646
▁မှတ်တမ်း	-9.41659
ံ့	-9.42167
▁အဖို	-9.4221
လိပ်	-9.42251
ကိုယ်	-9.42312
▁လိပ်	-9.42339
▁မောင်	-9.42605
▁ပါး	-9.42983
▁ခွဲခြ	-9.43039
▁မြင့်	-9.43048
▁အကြွေ	-9.43085
ဝေါ်	-9.43143
▁သန့်ရှင်း	-9.43143
▁ဝေဖန်	-9.43145
▁သီးခြား	-9.43145
▁ဖြေရှင်း	-9.43147
▁လူကြီးမင်း	-9.43151
▁ပန်းကန်	-9.43166
▁စားသုံး	-9.43346
တွင်း	-9.43432
▁အပြီး	-9.43466
▁စကားလုံး	-9.43473
တမ်း	-9.43521
▁ရှင်းလင်း	-9.43868
▁ဟော	-9.43934
နှင့်	-9.43969
မြေ	-9.44559
ဝန်း	-9.44576
▁အန္တရာယ်	-9.44632
▁လေ့ကျင့်	-9.45115
▁တတိယ	-9.45182
▁အကြံပေး	-9.45194
▁ကဏ္ဍ	-9.45221
▁အကြိုက်	-9.45225
▁အထွေထွေ	-9.45226
▁သက်တမ်း	-9.45227
▁စက်တင်	-9.4528
ိတ်	-9.45302
ပို့	-9.45332
ခြားနား	-9.45372
▁စေတီတော်	-9.45409
▁နေ့လည်	-9.45518
ို့	-9.45701
▁စစ်ပွဲ	-9.45759
▁အမ	-9.45834
▁လမ်းမ	-9.45843
▁ချော	-9.46192
▁ထိန်း	-9.4639
▁ဗိုက်	-9.46809
▁ဖြေ	-9.46893
▁လက်တွေ့	-9.46993
▁ဗေဒ	-9.47046
▁သက်ဆိုင်	-9.47277
▁ဝတ်စုံ	-9.47322
▁အိပ်မက်	-9.47338
▁နည်းလမ်း	-9.47358
တကျ	-9.47375
▁အောက်တ	-9.47417
▁လျှော်	-9.47446
ပုလင်း	-9.47503
ကြည့်	-9.47773
အစား	-9.48046
ရောဂါ	-9.48242
▁ကန်	-9.48385
အပြင်	-9.48415
▁ညီမ	-9.48459
▁ခွေး	-9.49241
▁ရေနံ	-9.49408
▁ပညာသင်	-9.49424
▁မြစ်ဝှမ်း	-9.4943
▁ကွန်မြူ	-9.49478
ခိုင်	-9.49495
▁စောစော	-9.49507
▁ဂီတ	-9.49529
▁စာရွက်	-9.49565
▁လူကြီး	-9.49581
▁ဒေါသ	-9.49581
▁သက္က	-9.49606
ပြော	-9.49967
ည့်	-9.50048
ပိုး	-9.50131
▁ရွှေ့	-9.50163
▁လိုင်း	-9.50253
▁ဆူ	-9.50291
▁အနေန	-9.5041
ပြေ	-9.50836
ing	-9.51214
▁တီး	-9.51378
ငွေ့	-9.514
ဖြစ်	-9.51467
တကွ	-9.51567
▁ဆောက်လုပ်	-9.51578
▁ကုန်သွယ်	-9.51588
▁တွေ့ဆုံ	-9.5161
ိုဘာ	-9.5162
ခဲ	-9.5164
ခန်းမ	-9.51655
▁ကမ်းရိုးတန်း	-9.51681
ရန်း	-9.51908
▁ဒေါက်	-9.51927
▁နှိပ်	-9.51973
ဘီယာ	-9.52511
အပ်	-9.52566
ရွာ	-9.52666
ဈေး	-9.52733
ရှည်	-9.52746
▁ထောက်	-9.52949
▁စပ်	-9.5303
ကြည့်	-9.532
▁တူညီ	-9.533
ဆပ	-9.53557
▁အနုပညာ	-9.53792
▁ကိုလိုနီ	-9.53794
▁ကွယ်လွန်	-9.53802
▁ဖျော်ဖြေ	-9.53832
▁မိတ်ဆွေ	-9.53833
စိုး	-9.53874
လန်	-9.53874
ဝါရီ	-9.53889
▁စီးပွားရေး	-9.54045
▁မနက်စာ	-9.54123
▁အခမ	-9.54145
▁ထောင်	-9.54372
▁ဆန္ဒ	-9.54608
သိမ်း	-9.54788
▁လည်	-9.5479
▁၁၉၃	-9.54804
▁ရတနာ	-9.54832
▁ဆင်	-9.5485
▁အကြောင်းအရ	-9.55075
▁ဖျား	-9.55454
▁စေတီ	-9.55802
▁ပရိုတ	-9.5596
▁ငြိမ်	-9.56001
ဌာန	-9.56014
ယှက်	-9.56061
▁တီထွင်	-9.56062
▁အစည်းအဝေး	-9.56065
▁သတိထား	-9.56071
▁စာဖတ်	-9.56084
▁ဒဿနိက	-9.56106
▁သစ်သီး	-9.56135
▁ဦးအောင်ဆန်း	-9.56185
ကောင်းမွန်	-9.56203
▁ပြည့်စုံ	-9.56322
▁ညှပ်	-9.56338
တောင်း	-9.5648
▁ချိန်း	-9.56519
▁စာချုပ်	-9.56542
▁ကျော်ကြား	-9.566
▁အရည်	-9.56623
▁ကိ	-9.56651
▁ချိတ်	-9.56665
▁တံဆိပ်	-9.56731
▁ကျက်	-9.56894
▁ပု	-9.56905
ခေါင်	-9.56922
ူး	-9.56944
းကျင်	-9.57009
▁ဆိုလို	-9.57264
▁အပတ်	-9.57269
ြား	-9.5754
ာဉ်	-9.5767
▁M	-9.57881
န်းကျ	-9.57953
ဋ္ဌ	-9.58251
သုတ	-9.58322
ယံ	-9.58348
▁စာသင်	-9.58351
လိုင်	-9.58352
t	-9.58354
▁နွား	-9.58396
▁ပြန်အမ်း	-9.58401
dom	-9.58426
▁ဖုန်းခေါ်	-9.58439
▁စက်ရုံ	-9.58447
▁ဆင်းရဲ	-9.58517
▁ကျယ်	-9.58626
▁ကျေနပ်	-9.58674
▁လတ္တ	-9.58737
င်မရာ	-9.5874
▁၂၇	-9.58866
▁မီတာ	-9.58881
▁နယူး	-9.59099
ခြောက်	-9.5938
▁ဘီ	-9.5958
ခတ်	-9.59589
▁B	-9.5975
ျော်ရည်	-9.59773
▁မလေး	-9.5988
▁ဒီဇ	-9.60101
▁သွင်း	-9.6019
▁ထည်	-9.60491
▁ကိုက်	-9.60587
▁တော်လှန်	-9.60725
▁သူဌေး	-9.60774
ီဂျင်	-9.60781
▁အနားယူ	-9.60799
▁နဂါး	-9.60814
▁ရေချိုး	-9.60827
ငယ်	-9.61006
▁အလုပ်သမား	-9.61034
လှစ်	-9.61177
▁ခရစ်	-9.61304
မ်	-9.61325
▁ဆား	-9.61369
▁ရှောင်	-9.61563
မိုး	-9.62179
ain	-9.62193
▁ကဒ်	-9.62647
▁တကယ့်	-9.62738
ည်း	-9.62839
▁အလှ	-9.62857
▁ဘုရားသ	-9.62976
▁ကိန်း	-9.63069
ဖန်	-9.63135
▁အမြီး	-9.63208
▁အမြောက်အမ	-9.63221
▁စာရေးဆရာ	-9.63222
▁ဆောင်းပါး	-9.63243
▁ကျွမ်းကျင်	-9.63256
▁ဇာတိ	-9.63256
▁အကွာ	-9.63256
▁ချည်း	-9.63272
▁အသံထွက်	-9.63277
▁စိုးရိမ်	-9.63336
▁လွှမ်းမိုး	-9.6342
ဝိုက်	-9.63485
▁စက်မှု	-9.63575
▁လွှဲ	-9.63842
င်းဆက်	-9.64086
ောင်း	-9.64257
▁ဗ	-9.64578
ါ	-9.64756
မြှုပ်	-9.64769
▁လူထု	-9.64954
တ်မိ	-9.6507
▁စင်	-9.65219
▁ရိုးရာ	-9.65726
▁ရာထူး	-9.65726
▁မွေးမြူ	-9.65745
▁ရှည်လျား	-9.65746
▁နန်းတော်	-9.65747
▁မှတ်ပုံတင်	-9.65757
▁ဗိုလ်	-9.65784
▁အမြင်	-9.65786
ဆန်	-9.65995
▁ညွှန်း	-9.66012
▁ဝယ်ယူ	-9.66289
လိုင်း	-9.66303
▁သစ်တော	-9.66388
▁တည့်	-9.66417
▁ကူ	-9.66482
▁မြန်မြန်	-9.6656
▁အားပေး	-9.66592
▁ဇွန်	-9.66664
စံ	-9.66749
တိုင်း	-9.6682
▁ထူထ	-9.67185
▁ဇာတ်	-9.67631
▁ကောလိပ်	-9.67858
▁အသိ	-9.67948
ဒ	-9.6803
သောက်	-9.68126
ဝေး	-9.68183
▁စင်္ကြံ	-9.68271
▁တေးဂီတ	-9.68271
▁အီလက်ထရွန်	-9.68274
▁ငို	-9.68292
▁အနောက်တိုင်း	-9.68296
ဆီ	-9.68334
▁ပေါ	-9.68347
▁ပိတ်ဆို့	-9.68406
သွေး	-9.68417
▁ဝမ်းနည်း	-9.6842
▁ခြေထ	-9.68431
▁ပေါင်းစပ်	-9.68439
▁အဖိုး	-9.68451
▁ဘောဂ	-9.68584
ဝဝ	-9.68662
▁အနည်း	-9.68681
တီ	-9.68737
P	-9.68833
▁သိန်း	-9.68839
▁ဂ	-9.6885
ဖွဲ့	-9.68949
▁လေးစား	-9.69231
▁လှေ	-9.693
▁စံ	-9.69323
ကုန်း	-9.69459
လှန်	-9.69472
ရှင်း	-9.69476
ရွက်	-9.69792
▁အကျယ်	-9.6987
▁လျော့	-9.69927
ကဲ	-9.7008
အို	-9.70214
▁ဆန္ဒပြ	-9.70258
ပြီ	-9.70356
သဘောထား	-9.70359
▁သိမ်းပ	-9.70414
▁ပီ	-9.70467
▁တိ	-9.7056
▁စည်းကမ်း	-9.70856
▁ပြဇာတ်	-9.70877
▁ဂရိ	-9.70919
▁အတွေး	-9.70928
▁တွက်ချက်	-9.70939
▁အနိုင်	-9.70952
▁ဇနီး	-9.70955
▁လက်ဆွဲ	-9.71033
▁အက္ခရာ	-9.71042
လွယ်ကူ	-9.71105
▁ဗျ	-9.71162
▁ဖုံး	-9.71259
ကျယ်ပြန့်	-9.71438
ကာလ	-9.71482
▁လူမှု	-9.71664
▁လယ်	-9.71676
▁လမ်းညွှန်	-9.71682
▁၁၀၀	-9.71789
▁ဉာဏ်	-9.71819
▁ဖောင်	-9.71923
▁၄၀	-9.72043
▁အော်	-9.72259
▁ညီညွ	-9.72723
အောင်ဆန်း	-9.72949
လှမ်း	-9.73029
ဝတ္ထု	-9.73053
ဇီဝ	-9.73061
ထိုင်	-9.73168
▁တွေး	-9.73216
ရှု	-9.73511
▁ကဗျာ	-9.73598
▁အကောက်ခွန်	-9.73606
▁အခက်အခဲ	-9.73606
▁ယုံ	-9.73619
▁ကိုး	-9.7365
▁လယ်ယာ	-9.73666
▁အသိုက်	-9.73674
▁အင်တာ	-9.73675
▁ကြည့်ရှု	-9.73711
▁ထောက်ပံ့	-9.73727
▁အပြန်	-9.73776
▁အားနည်း	-9.7392
on	-9.73946
▁အလိုက်	-9.74037
▁ထီး	-9.74046
▁အို	-9.74227
▁ချမ်းသာ	-9.74682
မြတ်	-9.74815
▁အေ	-9.74871
▁ဖောက်	-9.74883
▁ဖိတ်	-9.75011
▁ထူ	-9.7522
ခြေ	-9.7564
မောင်	-9.75713
အမေရိက	-9.75969
▁အိမ်သာ	-9.76022
▁မိုက်ခရို	-9.76383
▁ကြက်ဥ	-9.76389
▁အကြံပြု	-9.76417
▁အနေအထ	-9.76418
▁ဖန်တီး	-9.76439
▁တံတား	-9.76536
မိ	-9.76661
▁ဝက်သား	-9.76661
ေး	-9.76697
ဇူ	-9.76758
င့်အ	-9.76819
မံ	-9.76888
ြ	-9.77065
▁ပြည့်	-9.77284
▁စိုက်	-9.77427
▁ချွေး	-9.77499
▁ဥက္က	-9.77581
ဒို	-9.78036
▁အလုပ်လုပ်	-9.7809
လံ	-9.78102
▁ဆုံ	-9.78172
ခြံ	-9.78247
ငှက်	-9.78302
▁စင်း	-9.78465
ညီ	-9.7868
▁ဗဟ	-9.78806
စွမ်း	-9.78981
တည့်	-9.79137
▁အောက်ဆ	-9.79238
▁ရွှေတိဂုံ	-9.7924
▁အင်ဒိုနီးရှ	-9.79241
▁စက်ဘီး	-9.79245
▁ဇီး	-9.79253
ာသပ	-9.79257
▁တင်ပို့	-9.79286
▁လုံခြုံ	-9.79316
▁အကယ်	-9.79336
ဆစ်	-9.79482
▁နိုင်ငံရေး	-9.79579
▁ကျေး	-9.79583
ကင်	-9.79655
▁ပို့ဆောင်	-9.79676
▁အတည်	-9.79676
▁မြ	-9.79695
▁စာတိုက်	-9.79731
▁ရှန်ဟ	-9.79963
နပ်	-9.8
ပစ်	-9.80002
ဖုံး	-9.80331
▁၂၈	-9.80433
▁ပြုတ်	-9.8046
ဘုရား	-9.80481
ဝိုင်း	-9.80554
▁ရွေ့	-9.80611
▁အပြစ်	-9.80749
စွဲ	-9.80771
▁ကတ်	-9.80838
▁ချို	-9.80884
▁ကြုံ	-9.8101
ဂန	-9.81366
▁အင်	-9.8158
ာကြာ	-9.81654
မဲ့	-9.81689
ညွှန်း	-9.81696
▁တွက်	-9.81719
ဓာတ်	-9.81777
ကျွတ်	-9.81831
ဿ	-9.8191
▁ဇ	-9.81975
▁တန	-9.82126
▁အဓိပ္ပာယ်	-9.82152
ဆော့ဖ်	-9.82173
▁အများအားဖြင	-9.82189
▁မိတ်ဆက်	-9.82193
▁အင်္ဂလ	-9.82194
▁အဆင်မ	-9.82208
▁နယ်စပ်	-9.82231
▁စာသင်ခန်း	-9.8227
▁ပဲခူး	-9.82325
▁တာဝန်ယူ	-9.82335
▁အစိမ်း	-9.82341
▁စိတ်ချ	-9.82467
▁မိခင်	-9.82543
လှ	-9.82609
အုပ်	-9.82676
▁အလည်	-9.82717
ဆ	-9.82868
ပိတ်	-9.83039
ထူထပ်	-9.83188
သင့်	-9.83188
အဆ	-9.83255
▁ခန္ဓာ	-9.83365
▁မူလ	-9.83507
▁ကရင်	-9.83532
▁ပြား	-9.83565
ချောင်း	-9.83752
▁မျှော်	-9.83791
ြိတ်	-9.84201
ဝတ်	-9.84283
a	-9.84372
▁၂၄	-9.84563
al	-9.84638
မော်	-9.8475
ရှုပ်	-9.84778
ထိပ်	-9.84996
နံပါတ်	-9.85011
စာတမ်း	-9.85027
ုဒ္ဓ	-9.85199
▁အံ့ဩ	-9.85213
▁လူနေမှု	-9.85221
▁အချစ်	-9.8523
▁သန့်ရှင်း	-9.85239
▁မစ္စ	-9.85241
▁သရုပ်ဆောင်	-9.85271
▁နားမလည်	-9.85275
ဆယ်	-9.8531
▁အအေး	-9.85339
▁ကိုဇော်	-9.85514
▁အဖြူ	-9.85546
ိုဂျင်	-9.85699
လုံ	-9.85866
▁အရှိန်	-9.85986
▁ဝန်	-9.86066
ည်	-9.86364
▁အနှစ်	-9.86614
▁အသွင်	-9.86704
▁အဆောင်	-9.86973
စိမ်း	-9.87054
▁ကုတ်	-9.8716
l	-9.87211
▁တောင်း	-9.87415
▁နေကောင်း	-9.87418
▁နှင်း	-9.87445
▁ကြမ်း	-9.87563
▁I	-9.87575
▁မဆို	-9.87601
▁အမဲသား	-9.87807
▁ဝမ်း	-9.87959
မျက်နှာ	-9.8817
ကျွန်း	-9.88272
▁ဧည့်	-9.88337
▁ဘင်္ဂလားဒေ	-9.88337
▁သုတေသန	-9.88338
▁ကြေးနန်း	-9.88339
▁အသေးစိတ်	-9.88342
▁ခေါင်းကိုက်	-9.88345
▁သာမက	-9.88353
▁အနိမ့်	-9.88358
▁ယေဘ	-9.8838
▁ခြင်္သေ့	-9.88398
▁အလျင်	-9.88404
့ရှ်	-9.88409
ီး	-9.88473
▁အရသာရှိ	-9.88675
▁အဝတ်အ	-9.88879
▁လူနာ	-9.89035
▁လက်ရာ	-9.89115
▁သက်သက်	-9.89348
ဆန်း	-9.8939
ခဏ	-9.89457
ကျယ်ဝန်း	-9.89529
စ်ပတ်	-9.89655
▁အယူ	-9.89793
▁အဘယ်	-9.89808
ုံ	-9.89878
ကင်း	-9.89896
▁ကွင်း	-9.90022
▁အနီ	-9.90453
and	-9.90712
▁မမ	-9.90735
o	-9.90738
▁ချုပ်	-9.90984
သမ	-9.91025
▁သတ်	-9.9136
မယ်	-9.91371
င်္ဂန	-9.91417
▁ရဟန်း	-9.91537
တကူ	-9.91556
▁များသောအားဖြင	-9.91563
▁ဟိန္ဒူ	-9.91563
▁ပုန်ကန်	-9.91563
▁သီးသန့်	-9.91566
လျင်မြန်	-9.91591
▁မြွေ	-9.91643
သော်	-9.91691
▁နွေဦး	-9.91692
ကရက်	-9.91714
ုတ်	-9.91831
u	-9.92121
▁ထောင့်	-9.92163
ော	-9.92197
▁ကျား	-9.92313
▁အဝေး	-9.92469
▁ရောင်ခြည်	-9.92623
သိန်း	-9.92707
လ်	-9.93238
▁မက	-9.93484
ဝမ်	-9.93529
ကျော်	-9.93587
▁သင့်	-9.93606
▁ချည်	-9.93712
▁အစဉ်	-9.93849
ဘုတ်	-9.94047
▁L	-9.94107
▁ချီ	-9.94441
▁ပြင်ပ	-9.94752
▁A	-9.94762
ချီ	-9.94829
▁စုဆောင်း	-9.94901
▁အသိအမှတ်	-9.94901
▁ယူရေးနပ်	-9.94902
▁ပုသိမ်	-9.94902
▁သတိရ	-9.94913
▁မုတ္တမ	-9.94957
▁စမ်းသပ်	-9.94965
▁လဲလှယ်	-9.94976
▁ကံကောင်း	-9.95013
▁ကျွဲ	-9.95047
တီး	-9.95095
▁အေးချမ်း	-9.95108
▁နံရံ	-9.95199
▁ဆောက်	-9.95208
▁အိပ်ရာ	-9.95238
▁ကိုယ်စား	-9.95254
▁ဝင်ငွေ	-9.95276
▁ကုသ	-9.95277
▁သပိတ်	-9.95306
▁အမိန့်	-9.9531
▁စာလုံး	-9.95379
ation	-9.95833
ဖို	-9.95927
ကတ်	-9.96024
▁တစ်ရာ	-9.96105
ချဲ့	-9.96174
▁ပုဒ်	-9.96284
ီးယား	-9.96667
▁အယ	-9.97064
▁အနား	-9.97163
်း	-9.97169
▁ဒဏ်	-9.97261
▁စော	-9.97488
▁သတ္တိ	-9.97537
▁ရွက်	-9.97612
▁အစားအသ	-9.97714
▁၁ဝ	-9.97801
▁၂၁	-9.97888
▁T	-9.97996
ေ	-9.98025
ထွား	-9.98067
▁နှိုင်းယှဉ်	-9.98344
▁ဟင်းသီးဟင်းရွက်	-9.98344
▁စိတ်လှုပ်ရှား	-9.98349
▁သိုးမွေး	-9.98352
▁အပြာ	-9.98367
ကျို	-9.98394
▁အသုံးအ	-9.98425
▁အိပ်ယာ	-9.98437
▁လွတ်မြောက်	-9.98438
▁စွမ်း	-9.98463
လွှား	-9.98493
▁စိတ်ကူး	-9.98533
ဖျက်	-9.98552
▁ဟွာ	-9.98568
▁ထင်မြင်	-9.98621
▁အတွေ့	-9.98655
ကျင်း	-9.98692
▁ကြွ	-9.98738
▁ထိပ်	-9.98765
▁မုန့်	-9.98795
စောင့်ရှောက်	-9.98863
ရွှေ့	-9.98883
▁ဆင့်	-9.98897
ိမ့်	-9.98954
▁မြစ်ကြီး	-9.99174
▁သစ္စာ	-9.99183
ကမ်း	-9.9922
▁အရေးအ	-9.9924
▁စက္ကူ	-9.99263
ရစ်	-9.99362
▁D	-9.99518
▁နို့	-9.99605
▁၂၉	-9.99715
▁မာ	-9.99738
▁တိမ်	-10.0005
ခါ	-10.0018
လူ	-10.0021
ic	-10.0023
▁စွဲ	-10.0033
▁အရိုး	-10.0045
▁ချန်	-10.0048
ရင်	-10.0059
ဒမ်	-10.0063
ကြမ်း	-10.0093
▁ကိုယ့်	-10.0096
▁ဖော်	-10.0098
▁ဆာ	-10.011
ဝတီ	-10.0134
▁ဆိုက်	-10.0144
▁၂၆	-10.0145
▁အသွား	-10.0147
▁လစာ	-10.0157
▁လုံ	-10.0158
ချို	-10.018
ုက္ခ	-10.0184
▁စုံစမ်း	-10.0184
▁အထောက်အ	-10.0191
▁စည်းမျဉ်း	-10.0192
▁စာကြည့်တိုက်	-10.0192
▁လန်ဒန်	-10.0192
▁အရောင်းအဝယ်	-10.0192
▁ရေနွေး	-10.0192
▁နယ်ပယ်	-10.0192
▁ဆိုရှယ်လစ်	-10.0192
▁လည်ချောင်း	-10.0192
▁ကမ်း	-10.0194
▁မီးရထား	-10.0196
▁ပုံသဏ္ဌ	-10.0198
▁ဒဏ်ရာ	-10.0198
မြင့်မား	-10.0199
▁သန့်စင်	-10.0199
▁မျက်မှန်	-10.0201
▁လိမ္မော်	-10.0211
▁ပန်းချီ	-10.0211
ကြပ်	-10.0212
▁အငယ်	-10.0217
သေး	-10.0231
▁အဖျား	-10.0246
▁ဘီစီ	-10.0249
ဘ	-10.0256
▁ထမ်း	-10.0264
▁အဲ	-10.0278
ကျား	-10.0291
အဝေး	-10.0306
ဇင်	-10.0311
▁ဟင်	-10.0312
▁အသွားအ	-10.0314
ဆိုင်း	-10.0333
▁ပွဲတော်	-10.0353
▁၂၀၀၀	-10.0354
▁အပေါက်	-10.0375
▁နေ့စဉ်	-10.0386
▁ကတိ	-10.0387
▁သကြား	-10.0392
ဖောက်	-10.0392
ဆူး	-10.04
ပြည်	-10.0438
ပဲ	-10.0441
ခွင်	-10.046
ကျောက်	-10.0462
▁နိုင်ငံသား	-10.0465
၀၀	-10.0479
ိဇ္ဇ	-10.0498
သမီး	-10.0502
▁ထုပ်	-10.0507
▁လီ	-10.0522
ထုပ်	-10.0527
ကျင်	-10.053
ပြောင်	-10.053
▁မြောက်မြား	-10.055
▁ယခ	-10.0561
▁လျှို့ဝှက်	-10.0562
▁ပါမောက္ခ	-10.0562
▁မန်နေဂျာ	-10.0562
နိမိတ်	-10.0562
▁ရည်ညွှန်း	-10.0562
▁နဲ့အတူ	-10.0562
▁လိုင်စင်	-10.0562
▁အနော်ရထာ	-10.0562
▁ယာဉ်ကြော	-10.0562
ပြေး	-10.0563
▁ဖလင်	-10.0565
▁အနောက်မြောက်	-10.0568
▁သီတင်း	-10.0568
▁ဥစ္စာ	-10.0569
▁မှန်ကန်	-10.0569
▁ယှဉ်ပြိုင်	-10.0569
▁စတိုး	-10.057
▁ခွဲစိတ်	-10.057
ိုမို	-10.0572
▁သုံးသပ်	-10.0572
▁ပန်းသီး	-10.0575
▁of	-10.0577
▁ရပ်တည်	-10.0578
▁ရာဇဝင်	-10.0584
ဟူး	-10.0586
ငြိမ်း	-10.0587
လှူဒါန	-10.0592
▁ပြည်ပ	-10.0594
ကြော်	-10.0595
ီဗွီ	-10.0599
ချေ	-10.0602
တူညီ	-10.0609
▁မြည်း	-10.061
မကျ	-10.0616
က္ခ	-10.0621
▁မေတ္တာ	-10.0621
▁ကြော်	-10.0624
▁တောက်	-10.0626
▁၂၃	-10.0634
▁အတု	-10.0636
▁ကြောင်	-10.0638
ဆိုးဝါး	-10.0654
အရာ	-10.0658
▁အန်	-10.0684
ဇီ	-10.0691
နင်း	-10.0704
▁ခုနစ်	-10.0709
▁အလား	-10.0717
▁ပွင့်	-10.072
▁ခံယူ	-10.0728
▁အလျ	-10.073
ေးမြ	-10.0733
အေး	-10.0754
ခွက်	-10.0756
▁တူး	-10.076
▁အစု	-10.0766
သင့်တော်	-10.0792
▁သီးနှံ	-10.0792
▁သွယ်	-10.0795
▁ချိုး	-10.0838
▁အနီးအ	-10.0871
▁ဆပ်	-10.0872
▁ဖြည်းဖြည်း	-10.0876
▁ဟေ	-10.0924
▁ခုန်	-10.0926
▁ကုန်း	-10.0929
▁နာဂ	-10.0933
သဏ္ဌ	-10.0939
▁ပရ	-10.0943
▁အကျင့်	-10.0946
▁မော်လီကျူး	-10.0947
▁အခမ်းအနား	-10.0947
the	-10.0947
▁ပရိုဂရမ်	-10.0947
▁သထုံ	-10.0947
▁ဥက္ကဌ	-10.0947
▁ဆိပ်ကမ်း	-10.0947
▁ယူနီကု	-10.0947
▁အဆက်အသွယ်	-10.0947
▁ဂင်မ်	-10.0947
▁ကြော်ငြာ	-10.0947
▁မျက်ရည်	-10.0947
▁သာသနာ	-10.0947
▁ချီတက်	-10.0949
▁ဇာတ်လမ်း	-10.0949
▁ကုရ	-10.095
▁လိုင်းကား	-10.095
▁ငယ်ငယ်	-10.0951
▁အရေးပေါ်	-10.0953
▁အသီးအ	-10.0953
▁မြောင်းမြ	-10.0954
ဟင့်	-10.0955
▁ယဉ်ကျေးမှု	-10.096
▁ဟော်	-10.0961
ခိုင်မာ	-10.0963
▁အပြည့်	-10.0964
ချိုး	-10.0965
▁ရှုပ်	-10.0977
▁စီရင်	-10.0979
▁ဖေါ်	-10.0981
ပြန်အ	-10.0982
▁အကောင်	-10.0985
▁ပိုး	-10.099
်အာ	-10.0994
တွက်	-10.0995
▁ကျင့်	-10.0997
ဂဏန်း	-10.1001
▁ကမ်းခြေ	-10.1008
▁အက	-10.1008
▁သက်ရောက်	-10.101
▁သေဆုံး	-10.1014
အမှတ်	-10.1018
▁အစစ်	-10.1029
မိုင်	-10.1039
▁အံ့	-10.1053
us	-10.1066
ာဝတီ	-10.1066
▁ဦးလေး	-10.1082
▁ဖယ်	-10.109
ပြတ်	-10.1097
▁ယာဉ်စီးခ	-10.1101
▁ဗူး	-10.1104
ေဒီ	-10.1106
▁ဟဲ	-10.1117
ရွယ်	-10.1123
အိုင်အေ	-10.1151
တုံး	-10.1164
▁ဖိုး	-10.1188
▁name	-10.1215
ရွှေ	-10.1216
▁အီ	-10.1252
သန်း	-10.1257
▁သော့	-10.1309
င	-10.1335
ပြိုင်	-10.1341
▁နိ	-10.1343
▁ဧက	-10.1346
▁ဗိုလ်မှူး	-10.1346
▁စွပ်ပြုတ်	-10.1347
▁အမှတ်တရ	-10.1347
▁ကော်မရှင်	-10.1348
▁မေးခွန်း	-10.1348
▁အပြည့်အ	-10.1349
▁ကုန်းပြင်	-10.135
▁ဈေးဝယ်	-10.135
▁နီးစပ်	-10.1351
▁စိတ်ဓာတ်	-10.1354
▁စာကြည့်	-10.1361
▁ခွဲဝေ	-10.1362
ဘော	-10.1362
▁ဘုရင်ခံ	-10.1363
▁စာရင်းသွင်း	-10.1364
▁အနှံ့	-10.137
▁ပေါင်မုန့်	-10.1372
▁ဧည့်	-10.1375
လူတို	-10.1381
မောင်း	-10.1396
မြဲ	-10.1396
▁ကျောက်စာ	-10.141
တ္တိ	-10.141
ခွံ	-10.1411
ဆရာ	-10.1426
▁ဆေးဝါး	-10.1428
ဂျီ	-10.1436
▁သန်	-10.1438
လင်	-10.1447
ိုင်	-10.1451
ဟာ	-10.1454
▁လှမ်း	-10.1454
ုံးခန်း	-10.1465
um	-10.1466
▁ကုလား	-10.1467
S	-10.1472
စေ့	-10.1477
ွှဲ	-10.1509
▁လော့	-10.1509
▁N	-10.1521
▁G	-10.1522
▁အိမ်စာ	-10.1537
in	-10.154
▁အထင်	-10.1565
▁ကုန်ကျ	-10.1589
ခွန်း	-10.1592
▁ကုန်ဆုံး	-10.1609
ဇွန်း	-10.162
မီး	-10.162
▁ရလ	-10.1627
▁မိန့်	-10.1639
▁တရားမ	-10.1645
▁E	-10.1648
▁ယိုး	-10.1649
▁အရှည်	-10.1655
▁မနု	-10.1664
▁ကြိုး	-10.1669
ွင်ပြင်	-10.1677
ကျပ်	-10.1692
▁၂ဝဝ	-10.17
ငါး	-10.1735
တ္ထ	-10.1736
မက်	-10.174
ကြင်နာ	-10.1751
ကြုံ	-10.1753
▁အကြံ	-10.176
ခင်မောင်	-10.1763
▁ပုဂ္ဂလိက	-10.1763
▁ရည်မှန်း	-10.1763
▁တီဗီ	-10.1763
▁အာဆီ	-10.1765
▁ချောင်းဆိုး	-10.1767
▁ကျေးလက်	-10.1768
▁ခန့်အပ်	-10.177
▁ဆင်န	-10.177
▁ဖြန့်	-10.177
▁ကွာခြား	-10.177
▁နူးညံ့	-10.1771
▁အနှော	-10.1772
▁ဟင်းရည်	-10.1773
▁ဆွဲဆောင်	-10.1781
▁ဓား	-10.1784
▁သစ်သား	-10.1817
▁အထပ်	-10.1823
က်ညီ	-10.1823
▁၂ဝ	-10.1823
မြှောက်	-10.1829
ောင်းချ	-10.1832
▁ထုတ်ကုန်	-10.1834
နိုင်	-10.1835
▁ဘောက်	-10.1843
အုံ	-10.1844
တမန်	-10.1862
အင်္ကျီ	-10.1865
▁မနှစ်	-10.1877
ကိုယ်လုံး	-10.1911
▁မော	-10.1932
▁အင်မ	-10.1942
တ်ပြား	-10.1957
▁ဗိ	-10.1959
m	-10.2006
ကိုင်	-10.2009
▁၃၆	-10.2035
တု	-10.2043
▁ပြင်း	-10.2052
▁၃၅	-10.2055
နည်းပါး	-10.206
▁နန်း	-10.206
▁ပိုက်	-10.208
▁အရောက်	-10.2081
C	-10.2091
ထောက်	-10.2107
▁လိမ်း	-10.2116
ဖျား	-10.213
▁ပီက	-10.2131
▁စခန်း	-10.2138
▁ရှ	-10.2144
▁ဆင်းသ	-10.2159
ဗ	-10.2177
ုပ္ပ	-10.2188
▁အလွယ်	-10.2196
▁အထောက်အပံ့	-10.2198
ယွင်း	-10.2198
▁ပျံသန်း	-10.2198
▁တိုက်တွန်း	-10.2199
▁အာလူး	-10.2199
▁တန်ခိုး	-10.22
▁အကြွေးဝယ်ကဒ်	-10.22
▁စွမ်းအင်	-10.22
▁ရောင်းဝယ်	-10.2204
▁သုံးဆယ်	-10.2207
▁ကျောင်းပိတ်	-10.2207
▁ဆုတောင်း	-10.2208
▁တိကျ	-10.2209
▁အလျား	-10.221
▁တစ်ပြိုင်နက်	-10.2214
▁အနံ့	-10.2218
▁ခါးပတ်	-10.222
▁ဘောင်းဘီ	-10.2221
▁နှုတ်ဆက်	-10.2224
▁အနာ	-10.223
▁ပါဆယ်	-10.2241
သတ္တိ	-10.2244
▁လက်ထ	-10.2249
ခြင်း	-10.2249
▁ယဉ်	-10.2259
▁ပေါင်	-10.227
▁တင်းနစ်	-10.2284
ပိ	-10.23
▁ကျိုး	-10.2306
▁ဟိုက်ဒ	-10.2312
အတွင်းရေးမှူး	-10.2313
အန္တရာယ်	-10.2318
ဖိနပ်	-10.2318
လွဲ	-10.2322
▁ကြက်	-10.2324
ပျောက်	-10.2326
မဟုတ်	-10.2336
▁ဝေ	-10.2342
က်ဖက်	-10.2346
တောင်းခံ	-10.2358
▁မှို	-10.2363
▁ကံ	-10.2368
▁အတိုး	-10.237
းလ်	-10.2378
▁ဩဇာ	-10.2397
▁ချေး	-10.2406
မူး	-10.2416
တွ	-10.2418
မလေး	-10.2434
▁P	-10.2435
▁မကြာ	-10.2436
ကီ	-10.2455
▁တခါ	-10.2475
မှုန်	-10.2484
▁ဝါး	-10.2494
စော	-10.2516
ရန်ဖြစ်	-10.2536
တတ်	-10.2536
▁ငြင်း	-10.2543
နမ်	-10.2569
▁မြို့ပြ	-10.2576
အကျယ်	-10.2582
ဆိတ်	-10.2589
▁အတော	-10.259
▁ထွန်း	-10.2599
ရင့်	-10.2602
သေချာ	-10.2608
ဆိုးရွား	-10.2645
ဖီ	-10.2648
▁အာကာသ	-10.2652
▁အစီရင်ခံ	-10.2653
▁ရဲဘော်	-10.2653
▁စင်တီ	-10.2655
▁အတိတ်	-10.2657
▁အငှား	-10.2658
ထုတ်ပြန်	-10.2663
▁တားမြစ်	-10.2664
▁လေထု	-10.2668
co	-10.2672
▁မတော်တဆ	-10.2677
▁ဆုံးရှုံး	-10.2677
▁အစွဲ	-10.268
▁ခေါက်ဆွဲ	-10.2682
▁အဖွား	-10.2706
es	-10.2719
ဆက်တိုက်	-10.2724
▁တအား	-10.2725
နန်	-10.2728
▁ခါး	-10.2749
မြောင်း	-10.2765
သာသာ	-10.2765
လွတ်	-10.2768
▁အဆ	-10.2776
▁မည်သူ	-10.2783
B	-10.2789
ကြိုးစား	-10.2804
စပါး	-10.2805
▁အဆောက်အ	-10.2813
▁၄၅	-10.2818
ျာ	-10.2837
▁အံ	-10.2848
တံ	-10.2861
▁ရှု	-10.2904
မြစ်	-10.292
▁စူးစ	-10.2948
ခြေချ	-10.2962
▁နှစ်ဆယ်	-10.2964
▁ခြံ	-10.2968
▁စွန့်	-10.2974
ထက်	-10.2984
▁၂၂	-10.2998
ူနာ	-10.3007
▁ကြေး	-10.304
အပျက်	-10.3055
လျော်	-10.3075
▁ရိုင်း	-10.3127
▁လက်သည်း	-10.3129
▁ညွှန်ကြား	-10.313
ီလီယံ	-10.313
▁ဖြတ်သန်း	-10.3131
▁ကူးစက်	-10.3132
▁အမွေ	-10.3136
▁ကားမောင်း	-10.314
စည်ကား	-10.314
▁အဆီ	-10.3163
▁အမည်ပေး	-10.3166
▁အခေါ်	-10.3175
▁၂၀ဝ	-10.3191
▁အီတ	-10.3193
▁သူရဲ	-10.3198
ည	-10.32
နာကျင်	-10.3206
▁တစ်ဝက်	-10.3214
ခိုး	-10.3229
▁အပြောင်း	-10.324
ချည်	-10.3249
ပီ	-10.3253
ဟောင်း	-10.3277
လူထု	-10.3293
ချပ်	-10.3296
ပြင်း	-10.3301
▁ကျော	-10.3317
▁ထွက်ကုန်	-10.3332
▁ကားလမ်း	-10.3339
စာရင်း	-10.334
ကောက်	-10.3353
▁ကျဉ်း	-10.3355
n	-10.3382
▁အကြီးအက	-10.3382
▁အဘယ်ကြောင	-10.3399
မှာ	-10.3403
ကလေး	-10.3411
▁အဖ	-10.3412
ရဲ	-10.3416
၂၀	-10.3417
▁ကင်း	-10.3428
▁အတတ်	-10.3429
ုံး	-10.3436
သန်	-10.3441
မည်း	-10.3457
စောင်း	-10.3464
▁ယာဉ်မ	-10.3466
▁ခုန	-10.3499
မွေး	-10.3506
လပ်	-10.3524
▁ဖာ	-10.3535
▁အရင်း	-10.3541
အဖွဲ့	-10.3549
ချင်	-10.3549
▁လင်း	-10.3557
ွယ်ဝ	-10.3565
နှံ့	-10.3572
င်္ဂါ	-10.3576
M	-10.3614
▁နက္ခတ္တ	-10.3629
▁အိန္ဒု	-10.3629
တံခွန်	-10.3629
▁မွမ်းမံ	-10.3629
▁အခွင့်အ	-10.3629
▁ကျူးကျော်	-10.3629
▁နှာခေါင်း	-10.3629
▁မီးလောင်	-10.363
▁လက်ဝဲ	-10.3631
▁ရိုးသား	-10.3635
ဒီးယား	-10.3636
▁ရုပ်ပုံ	-10.3639
▁တိတိ	-10.3639
▁အဓိပ္ပါယ်ရ	-10.364
▁ကြက်သား	-10.364
သင်	-10.3646
▁ချစ်ခင်	-10.3648
▁ဟင်းချက်	-10.3657
▁ဂျော့	-10.3657
ွမ်း	-10.3657
▁ပျံ့	-10.366
ယက်	-10.3663
▁ရိတ်	-10.3664
▁အခြောက်	-10.3665
အလဲ	-10.3667
▁အလံ	-10.3679
▁အရုပ်	-10.3683
▁သားရေ	-10.3684
န်းထွန်း	-10.3721
ang	-10.3725
▁ဒါကြောင့်	-10.3735
ဘွား	-10.3745
▁ငွေစု	-10.3747
လျှောက်	-10.3748
▁ကု	-10.3758
လောင်း	-10.3759
▁အခြေ	-10.3761
ဒေါ	-10.3767
▁ရှက်	-10.3772
▁အမြတ်	-10.3776
▁ပင်မ	-10.3786
ရော	-10.3793
ီမန်	-10.3803
လွှမ်း	-10.3805
▁နက်ပ	-10.3806
▁အရင်းအ	-10.3806
့်ဆို	-10.3808
T	-10.381
သင်္ဘော	-10.3821
ဂိတ်	-10.3822
▁ကြံ	-10.3823
တကယ်	-10.3825
ထွေး	-10.3827
နာရီ	-10.3835
▁အိမ်နီး	-10.385
ကြို	-10.3865
▁အပေါင်း	-10.3866
ဝဝဝ	-10.3873
▁နု	-10.3876
းပွား	-10.3883
▁စွန်း	-10.3887
▁သရက်	-10.3891
▁အေးအေး	-10.3893
နှင်း	-10.3948
▁in	-10.3949
ဉ်း	-10.3949
▁အပြုအမ	-10.395
▁၃ဝ	-10.3953
လျော့	-10.3975
▁စိန်	-10.4001
ပယ်	-10.4013
▁အဘ	-10.4014
▁ကော့	-10.402
သလ	-10.4028
နေရာ	-10.404
▁အသင့်	-10.4067
▁အမေရိက	-10.4071
ွား	-10.4072
ပြည့်	-10.409
▁အမိ	-10.4091
▁အသေး	-10.4092
ဗက်	-10.4104
▁အရောင်း	-10.4106
▁အစဉ်အ	-10.4109
မနား	-10.4127
ယောင်	-10.4136
▁ညွှန်	-10.4147
▁တွေ့ရှိ	-10.4147
စောင့်	-10.4151
▁အလေးဆ	-10.4152
▁အတွေးအ	-10.4155
▁ထူးချွန်	-10.4155
▁မျှော်လင့်	-10.4155
▁ရေငုပ်	-10.4155
▁သီအိုရီ	-10.4155
▁တုံ့ပြန်	-10.4155
▁ဦးနှောက်	-10.4155
▁ကမ္ဘာလှည့်ခရီးသ	-10.4155
▁အဘိဓာန်	-10.4155
▁for	-10.4156
ညွန့်	-10.4156
▁ကူးသန်း	-10.4156
▁နဂို	-10.4156
▁ဆော့ဖ်ဝဲ	-10.4157
▁ကျားသစ်	-10.4157
▁အချက်အချာ	-10.4159
▁မြတ်စွာဘုရား	-10.416
▁လုပ်ကြံ	-10.4163
▁ဆင်ခြင်	-10.4166
▁ပုံနှိပ်	-10.4168
▁ညီလေး	-10.4168
▁အဖြေ	-10.417
▁လောကီ	-10.4171
အမျှ	-10.4173
▁တင်သွင်း	-10.4175
▁အပျော်	-10.4182
သဘင်	-10.4185
▁ဖြည့်	-10.4188
ဆင့်	-10.4193
အကိုင်	-10.4195
▁နှုတ်	-10.4195
▁အစည်းအ	-10.4202
▁ပျော့	-10.4211
▁သိသာ	-10.4211
တိုး	-10.4234
▁တောင်ကြား	-10.4243
▁အချိုး	-10.4246
▁အပ	-10.4248
▁တနေ့	-10.4249
▁နွေး	-10.4252
က်ရောက်	-10.4263
▁ဟိုး	-10.4265
▁ဆူညံ	-10.4278
▁ဂိုဏ်း	-10.4278
ိုကေ	-10.4283
▁အာရ	-10.4284
ဝါး	-10.4289
နွယ်	-10.4292
▁နီ	-10.4295
့ငါး	-10.4316
ပါးပါး	-10.4319
ေတ	-10.4322
▁အတိအ	-10.4326
▁င	-10.4331
ဂရိတ်	-10.4336
ံရုံး	-10.4343
▁တား	-10.4347
▁မူး	-10.4347
ဖိုး	-10.4355
လှည့်	-10.4356
ကြိမ်	-10.436
▁လူသိ	-10.4366
▁သနား	-10.4367
ဒေသ	-10.4374
ဟ	-10.438
အတွင်း	-10.4386
သီးနှံ	-10.4386
ယာဉ်	-10.4398
▁၅၀၀	-10.4398
ဂီ	-10.4401
နို့	-10.4405
နောင်	-10.4419
အငြင်	-10.4476
ဝတ	-10.4476
▁ဧရာ	-10.449
တင့်	-10.4522
ရုပ်	-10.4537
ရို	-10.4546
▁ပျူ	-10.4575
ထု	-10.4606
▁ဂျာမန	-10.4606
းပါး	-10.4608
ကိုး	-10.4617
အကျ	-10.4621
▁စည်း	-10.4631
ဝန်	-10.4634
▁ဂူ	-10.4637
▁နံ	-10.466
အပို	-10.4676
ကယ်	-10.4684
▁တုံး	-10.4685
▁ကွက်	-10.4698
ကျွန်	-10.4702
▁ဘား	-10.4702
းမား	-10.4703
ကျန်	-10.4707
ပုန်	-10.4708
▁ကမ္ဘော	-10.4711
▁ခင်ပွန်း	-10.4711
▁တည်ငြိမ်	-10.4711
▁ဟံသာဝတီ	-10.4711
▁မီးပွိုင	-10.4711
▁ငှက်ပျော	-10.4711
▁တစ်စိတ်တစ်	-10.4711
▁အသည်း	-10.4711
▁ခေါင်းလျှော်	-10.4711
▁အကောင်အထည်ဖော်	-10.4711
▁အသေအ	-10.4711
▁တူးဖော်	-10.4712
▁ပျောက်ကွယ်	-10.4712
▁ကြက်သွန်	-10.4712
▁နို့တိုက်	-10.4717
▁သတိပေး	-10.4721
▁ဘဏ္ဍာ	-10.4722
▁ဘုန်းတော်ကြီး	-10.4722
▁လူကြိုက်	-10.4724
▁အားလပ်	-10.4724
▁အပူပိုင်း	-10.473
▁အလောင်း	-10.4731
▁အဆင့်	-10.4736
▁မင်းသား	-10.4736
စာစောင်	-10.4738
▁တကယ	-10.4741
▁လေ့ကျင့်	-10.4742
▁မိုးရေ	-10.4743
▁ကုန်သည်	-10.4743
▁ရှေးဦး	-10.4751
▁ညံ့	-10.4755
▁စိမ်း	-10.4756
▁ဦးခေါင်း	-10.4758
ဆွေ	-10.476
▁ဘုန်းကြီး	-10.4762
အမတ်	-10.4762
လောင်	-10.4772
▁ခဲတံ	-10.4774
▁ရှုပ်ထွေး	-10.4798
၅၀	-10.48
▁အတ္ထ	-10.4803
▁စမစ်	-10.4806
ပျောက်ဆေး	-10.4832
ကစ္စ	-10.4863
▁ဦးစီး	-10.4866
▁လှေကား	-10.4871
စခန်း	-10.4878
▁ရှပ်	-10.4882
▁အဲလို	-10.4887
▁ရေကြောင်း	-10.4892
▁ပြင်းပြင်း	-10.4907
သိမ်	-10.4909
မွှေး	-10.4911
တစ်ပါး	-10.4922
တွယ်	-10.4933
ဝက်	-10.4933
ဆွယ်	-10.4946
▁ကိုကျော်	-10.4961
ဖူး	-10.4968
အိုး	-10.4974
ch	-10.4976
▁၂၀၁	-10.4981
bur	-10.4989
▁ဆံ	-10.5
ယို	-10.5
▁အက်	-10.5003
ျမ်း	-10.5009
▁အခ	-10.5021
▁ထု	-10.5064
မခံ	-10.5068
▁ယောင်	-10.507
▁ကုန်ကျစ	-10.5082
▁အကြမ်း	-10.509
▁တစ်ချိန်	-10.5124
▁H	-10.513
▁ယို	-10.5152
▁ပျ	-10.5167
ွံ့	-10.5183
င့်အ	-10.5186
it	-10.5194
▁တမန်	-10.5218
▁လိုလို	-10.5231
▁ကြိတ်	-10.5236
▁၆၃	-10.5258
▁ပြတ်	-10.526
လက္ခဏာ	-10.5276
မာန်	-10.5278
▁သဒ္	-10.5283
ဂါ	-10.5288
▁သင်္က	-10.5296
▁ယှဉ်	-10.5298
▁တပည့်	-10.5299
▁ဘွတ်ကင်	-10.5299
▁လောလော	-10.5299
▁နှောင်း	-10.5299
▁စေ့စပ်	-10.5299
ထရွန်	-10.5299
▁ထူးဆန်း	-10.5299
▁ပိဿ	-10.53
▁ဗုဒ္ဓဘာသာ	-10.53
▁တည်းခို	-10.5302
▁စည်းလုံး	-10.5303
▁သစ်ရွက်	-10.5304
▁ပျင်း	-10.5307
▁ဧည့်ခံ	-10.5307
▁မြစ်ဝကျွန်းပေါ်	-10.5311
▁ဝင်ရိုးစွန်း	-10.5311
▁ကမ္ဘာမြေ	-10.5311
▁မြို့လယ်	-10.5312
ဖြူး	-10.5312
▁ပျဉ်း	-10.5315
ဗီယက်	-10.5316
▁ဂုဏ်ယူ	-10.5316
▁စိတ်ဆိုး	-10.5318
▁အလွတ်	-10.5321
▁အက်ဆစ်	-10.5323
▁ပထမတန်း	-10.5326
▁သမုဒ္ဒရာ	-10.5331
သွေ့	-10.5333
▁ဟင်းချို	-10.5334
မှ	-10.5349
▁ဓလေ့	-10.5352
▁လိမ္မာ	-10.5352
▁ပဲရစ်	-10.5352
တော	-10.5357
စားပွဲ	-10.5358
င်ပြ	-10.5366
ဒိန်	-10.5369
▁ပုစွန်	-10.5373
▁လှုပ်	-10.5375
▁အဆိပ်	-10.5378
▁ဦးတည်	-10.5379
▁နိမ့်	-10.538
▁ဝိ	-10.5382
အယ်လ်ဒီ	-10.5384
မတန်	-10.5385
▁လမ်းပြ	-10.5393
ခို	-10.5397
▁လော	-10.5403
ောင်လေး	-10.5406
▁ချိုးဖ	-10.5414
ထိန်း	-10.5422
▁သက်	-10.5427
▁မဲ	-10.5446
ဟိတ	-10.545
▁အထွက်	-10.5476
▁ကိုကို	-10.5478
ဖျ	-10.5481
▁ပြောက်	-10.5491
ဖ	-10.5491
သွယ်	-10.5494
ယုတ်	-10.5504
▁ကွ	-10.5508
ပူရ	-10.551
▁ပယ်	-10.5522
ဝပ်	-10.5534
မှောက်	-10.5539
p	-10.5544
ယ်ယူ	-10.5559
▁ထမင်းစား	-10.556
အေ	-10.5562
ဆည်း	-10.5569
▁အလင်း	-10.5569
ကမ္ဘာ	-10.5572
လျှော့	-10.5577
▁ပါလ	-10.5579
ခါး	-10.558
ဇယား	-10.558
မျှော်	-10.5592
▁တည့်	-10.5592
ဘူး	-10.5595
ပေါ	-10.562
ဖေ	-10.5625
▁ပင်လယ်ရေ	-10.5627
▁အာရုံ	-10.5661
▁၄၂	-10.5672
▁ပတ်စ	-10.5674
▁မဟာမ	-10.5674
ed	-10.5685
ine	-10.5691
▁ကျန်ရ	-10.5723
▁အညီ	-10.573
▁အသုံးမ	-10.574
ဝယ်	-10.5759
▁အတွင်းရေးမှူး	-10.576
န်ဒီ	-10.5773
ဒယ	-10.5775
▁သင်္ကြန်	-10.5785
ဒဏ်	-10.5789
▁စွ	-10.5802
ဘီ	-10.5804
န္တာ	-10.5805
▁ကြည်	-10.5807
ong	-10.5816
လိ	-10.5833
့ကြောင့်	-10.589
▁နမ	-10.5893
ခု	-10.5897
ဇ	-10.5907
▁စေတနာ	-10.5919
▁ဆေးလိပ်မသောက်	-10.5924
▁အင်ဂျင်နီယာ	-10.5924
▁အယ်ဒီတာ	-10.5924
▁The	-10.5924
▁နျူးကလီးယ	-10.5924
▁တွားသွား	-10.5924
▁တောင်သူလယ်သမား	-10.5924
▁ခလုတ်	-10.5924
▁တစ်စုံတစ်	-10.5924
▁ပထဝီ	-10.5924
▁သင်္ချာ	-10.5924
▁အထောက်အကူ	-10.5924
▁နွေးထွေး	-10.5924
▁ရှူ	-10.5925
▁ဈေးသက်သာ	-10.5926
▁အားမနာ	-10.5927
▁ဇာတ်ကား	-10.5928
▁ကန်တော့	-10.5929
▁ကုန်စည်	-10.5929
▁အဆင့်မြင့်	-10.5929
▁ဈေးချို	-10.5932
▁အရေပြား	-10.5933
▁စိတ်တိုင်း	-10.5942
▁ငွေရှင်း	-10.5947
▁မျိုးနွယ်	-10.5954
▁ဗီဇာ	-10.5962
▁စာရင်းပေး	-10.5963
▁လက်ပတ်	-10.5963
၂၅	-10.5964
▁သူရိယ	-10.5965
▁လက်ယာ	-10.5966
▁ပေါ့ပါး	-10.5974
▁ယွမ်	-10.5979
▁Uni	-10.5979
▁၈၀	-10.5984
▁ကြေ	-10.5999
▁ချဉ်း	-10.6
▁နှိုး	-10.6011
လဗာ	-10.6012
▁ဆယ့်နှစ်	-10.6013
▁အွန်	-10.6015
▁San	-10.6016
▁စိတ်ထား	-10.6017
▁နောက်ပြီး	-10.6032
ယုန်	-10.6039
▁Chon	-10.6076
▁မှောင်	-10.6077
▁ကြွေ	-10.6077
ရိပ်	-10.6085
▁ခြား	-10.6085
▁လက်ရေး	-10.609
▁မုန်း	-10.6096
▁ဟိမဝန္တာ	-10.61
▁ကိုယ်တော်	-10.6102
အခဲ	-10.6109
▁ခွင့်	-10.6119
ညွတ်	-10.6135
ရွေး	-10.6158
ောင်ကောင်	-10.616
▁ပျံ	-10.6166
မိတ်	-10.6196
▁ဝန်း	-10.6202
▁အုတ်	-10.6207
▁၅၅	-10.6213
▁ခွာ	-10.6222
ပို	-10.6222
ထိ	-10.6228
ထီး	-10.6242
N	-10.6246
ရိက္ခာ	-10.6247
ဖိတ်	-10.6255
စွန်း	-10.6256
သင်ခန်း	-10.6264
▁သေနတ်	-10.6272
▁ဗီ	-10.6281
တစိုက်	-10.6288
▁ဖြူ	-10.6308
▁ခြေသ	-10.6316
စမ်း	-10.6328
ိန်း	-10.6332
ျ	-10.6335
ဆပ်	-10.6363
ဆုံ	-10.6368
▁အိပ်မ	-10.6381
နဲ့	-10.6383
▁ရာဇ	-10.6397
မွေ့	-10.6405
▁သတိ	-10.6408
ျဉ်း	-10.6465
▁မြဲ	-10.6473
သီ	-10.6476
en	-10.6489
▁ထိုက်	-10.6497
▁ပရိ	-10.6505
▁အမူအ	-10.6507
▁၃၈	-10.654
ထိရောက်	-10.655
ဗာ	-10.6555
အသား	-10.6557
တာအို	-10.6564
ယာယ	-10.6565
ဆုန်	-10.6575
ကွယ်	-10.6582
▁ကနေဒ	-10.6587
▁ဆိုင်ကလု	-10.6587
▁ရဲဘော်သုံးကျိ	-10.6591
▁သတို့သမီး	-10.6591
▁ရေဒီယို	-10.6591
▁ဂျယ်ဂျူ	-10.6591
▁Apple	-10.6591
▁ချို့ယွင်း	-10.6591
▁ဘူဆန်	-10.6591
▁ဆံပင်ညှပ်	-10.6591
▁ဖန်ခွက်	-10.6591
▁နှစ်သစ်ကူး	-10.6592
▁အလကား	-10.6592
▁ရိတ်သိမ်း	-10.6592
▁ကျွေးမွေး	-10.6592
▁အဲရစ်	-10.6592
▁ကန့်ကွက်	-10.6592
▁အဘိုး	-10.6593
▁ဖဲ	-10.6594
▁မူလတန်း	-10.6594
▁ဓာတ်ဆီ	-10.6596
▁ချီးကျ	-10.6597
▁အစာအိမ်	-10.6597
▁ဘင်္ဂလား	-10.6598
▁လက်ကိုင်	-10.6599
တောင့်တင်း	-10.66
▁ပေါက်စ	-10.6601
▁ကျောင်းဆရာ	-10.6601
▁မီးရထားလမ်း	-10.6602
ွတ်	-10.6603
▁ယာဉ်တိုက်	-10.6604
နူး	-10.6605
▁လက်စွပ်	-10.6605
ိုင်ယာ	-10.6606
▁မီးခိုး	-10.6607
▁ကျုံး	-10.6608
▁အတင်းအ	-10.6608
▁အမှာ	-10.6609
▁၆၅	-10.6609
ဖတ်	-10.6613
▁၅ဝ	-10.6614
▁လေးလံ	-10.6614
▁မျိုးစေ့	-10.6615
▁ကြာရှည်	-10.6616
▁၃၇	-10.6623
▁မှည့်	-10.6628
▁အစွမ်း	-10.6634
▁ရထားလမ်း	-10.6645
▁ဖိအား	-10.6646
▁လောင်	-10.6646
▁တဖက်	-10.6646
▁နှလုံး	-10.6651
▁ဖြောင့်	-10.6652
▁မင်းတရား	-10.667
ry	-10.6677
လမ်းစဉ်	-10.6678
A	-10.6681
▁စာတမ်း	-10.6684
လျာ	-10.6685
▁မျိုးရင်း	-10.6687
▁လု	-10.6689
▁မြင့်	-10.669
ကဒ်	-10.6717
သုပ်	-10.6718
▁လှည့်	-10.6723
▁လှိုင်း	-10.6723
▁ချွတ်	-10.6726
ြော်	-10.6736
▁အမှုန်	-10.6736
▁ဆုတ်	-10.6739
▁ဝီ	-10.6743
▁လှဲ	-10.6755
▁၃၂	-10.6765
တ္တ	-10.6769
နို	-10.6772
▁၁၇၅	-10.678
▁ဘုံ	-10.6781
▁ခြုံ	-10.6787
ေးလ်	-10.6794
▁စကားမ	-10.6796
ဝံ	-10.6798
th	-10.6803
၁၄	-10.6806
▁တစ်ထောင်	-10.6813
ဆော်	-10.682
▁မျှတ	-10.682
▁ကော်	-10.6822
ုပ်ကိုင်	-10.6833
မွန်	-10.686
ရုံးစိုက်	-10.6878
▁နျူ	-10.6879
ဆုတ်	-10.689
▁U	-10.6894
code	-10.6909
အုံး	-10.6943
နန်း	-10.6943
ူဝါဒ	-10.6945
▁ရိက္ခာ	-10.6946
ပုဝါ	-10.6951
▁ဂျီ	-10.6954
ဆု	-10.6958
ကျွမ်း	-10.6966
ရတနာ	-10.6969
▁၁၉၂	-10.697
▁ဖြစ်ရပ်	-10.6978
တိ	-10.6986
ချဉ်	-10.6994
ပူး	-10.6996
▁ဆိုင်း	-10.7
ိုတယ်	-10.7007
▁အလုံး	-10.7015
ဘို	-10.7022
▁Co	-10.704
ပိန်	-10.7051
▁ဆိတ်	-10.7079
ထည့်	-10.7085
▁ထူး	-10.7098
ရိယ	-10.71
▁အနာဂတ	-10.7105
▁တပ	-10.7119
▁၁၀၀၀	-10.7122
ပွင့်	-10.7139
▁အဆင်	-10.7139
ကြော	-10.7148
▁သဲ	-10.7151
▁ဖား	-10.7152
▁နာမည်ကျော်	-10.7158
တုန်း	-10.7199
▁ချွန်	-10.7206
▁အစွန်း	-10.7213
▁ကြံဆ	-10.7214
နှီး	-10.7223
ဖြာ	-10.7227
တင်း	-10.7231
၁၀	-10.7252
▁ချဲ့	-10.7285
၈၅	-10.7286
ထရီ	-10.7295
▁အမဲ	-10.7304
▁Google	-10.7305
▁level	-10.7305
▁ဒက္ခိဏ	-10.7305
▁သံသယ	-10.7305
▁ဗီတာမင်	-10.7305
▁ဆွေမျိုး	-10.7305
▁အတိုက်အခံ	-10.7305
▁ခရမ်းချဉ်	-10.7305
▁အကြံဉာဏ်	-10.7305
▁အာကာသယာဉ်	-10.7305
▁ဥပစာ	-10.7305
ညှိနှိုင်း	-10.7305
▁ကန့်သတ်	-10.7306
▁ဓါတ်ပုံ	-10.7306
▁ကြေးနီ	-10.7307
▁စိတ်ညစ်	-10.7307
▁တွေးခေါ်	-10.7307
▁၆၀	-10.7308
▁ပန်းချီကား	-10.7308
ကြည်ညို	-10.731
▁အကြမ်းဖက်	-10.731
▁လေယာဉ်ပျံ	-10.7311
▁ဗန်း	-10.7312
▁သက်သေ	-10.7313
▁သင်္ဘောဆိပ်	-10.7314
▁ရုံးသုံး	-10.7314
▁ငွေချေ	-10.7314
▁ဆန်း	-10.7315
က်ခဲ	-10.7316
▁အလတ်	-10.7316
▁တရားရုံး	-10.7318
▁ပံ့ပိုး	-10.7319
▁ရည်းစား	-10.732
▁ကြီးကျယ်	-10.732
▁မီးဖို	-10.7323
▁ဒီဇိုင်း	-10.7327
မီးသွေး	-10.7327
▁လေးဆယ်	-10.7329
▁သက်ကြီး	-10.733
▁အကြွေး	-10.7331
နက်ရှိုင်း	-10.7331
▁အခိုး	-10.7331
လယ်	-10.7338
▁၇၀	-10.7343
▁မြေယာ	-10.7345
အသွေး	-10.7354
▁မြှင့်	-10.7358
ပွင့်လင်း	-10.7359
ရဲရင့်	-10.736
▁မျို	-10.7361
လင်္ကာ	-10.7361
▁ဗေဒင်	-10.7365
▁အလွန်အ	-10.7367
ng	-10.737
▁ဒူး	-10.737
▁မိုးကောင်း	-10.7373
ြာ	-10.7377
ရှ	-10.7398
▁ငှ	-10.742
နီးကပ်	-10.7512
ဆူ	-10.7513
က်တာ	-10.7525
▁အရှင်	-10.7528
းသမီး	-10.7536
အခြေပြု	-10.754
▁သန့်	-10.7555
▁နုတ်	-10.7562
ှင့်	-10.7568
▁စိ	-10.7577
▁အစပ်	-10.7577
▁အရေးမ	-10.7583
▁လုံးချင်း	-10.7594
▁မျက်မှ	-10.7614
▁တချိန်	-10.7621
ဖာ	-10.7628
▁ရှူး	-10.7643
ဝတ်ဆ	-10.7649
းခံ	-10.7673
▁ကြပ်	-10.7676
မှိုင်း	-10.7678
ကြောင်	-10.7708
ဇာတ	-10.7711
ပျံ	-10.7716
▁ဇယား	-10.7719
▁ဆယ့်	-10.772
ရှူး	-10.7732
ဩဇာ	-10.7735
တိုင်ပင်	-10.7737
စျေး	-10.7741
ယဉ်ကျေး	-10.7742
အလျ	-10.7745
သိပ်	-10.7745
အရွယ်	-10.7745
ဘာသာ	-10.7746
ဖုန်း	-10.7757
၁၅	-10.7766
အဖ	-10.7776
▁မတိုင်	-10.7776
ကွေ့	-10.7797
နင့်	-10.781
ဂ	-10.7815
ဂို	-10.7862
D	-10.7862
ရား	-10.7876
လန်း	-10.7889
ရွှင်	-10.7903
ပိုက်	-10.7906
▁နက်	-10.7925
ဖွင့်	-10.7949
ြံစည်	-10.7949
▁အစုံ	-10.7949
L	-10.7954
▁အလင်းရောင်	-10.7955
ကြယ်	-10.7963
၉၈	-10.7965
ပု	-10.7969
အလာ	-10.7982
▁ဂျ	-10.8
▁ပိန်	-10.8026
▁မျက်	-10.8026
ိန်	-10.8036
ငြာ	-10.8037
ဝှမ်း	-10.8071
▁စသဖြင	-10.8074
▁ရုပ်မြင်သံကြား	-10.8074
▁အမှိုက်	-10.8074
▁ကိန္နရာ	-10.8074
▁ထုံးတမ်း	-10.8074
▁MITS	-10.8074
▁ထုံးစံ	-10.8074
▁ညီအစ်	-10.8074
▁အင်ဂျင်	-10.8074
▁ဒေါ်ဒေါ်	-10.8074
▁အထီးကျန်	-10.8074
▁ရွေ့လျား	-10.8074
ယ်ဆာဗေ	-10.8074
▁ငရုတ်သီး	-10.8074
▁အကျုံး	-10.8074
▁စည်ပင်	-10.8074
▁ကျောက်မျက်	-10.8075
▁ခြေလျင်	-10.8075
Gates	-10.8075
▁နှင်းဆီ	-10.8076
▁အခြေစိုက်	-10.8076
▁ဆင်ခြေ	-10.8076
▁အဒေါ်	-10.8076
▁ဖက်ထုပ်	-10.8077
omputer	-10.8077
▁လင်မ	-10.8077
▁ရိုသေ	-10.8077
▁ဖောက်သည်	-10.8078
▁ပြဒါး	-10.8079
▁လျော့နည်း	-10.8079
▁တမင်	-10.8081
▁သကြားလုံး	-10.8082
▁ဓာတ်မှန်	-10.8083
ကနဲ	-10.8084
▁အညို	-10.8085
ယုဂ	-10.8085
▁ဆေးသောက်	-10.8086
▁မုခ်	-10.809
▁System	-10.809
▁တံတိုင်း	-10.809
▁နက္ခတ်	-10.8091
လေဝ	-10.8092
▁ချစ်ကြည်	-10.8095
▁အမရ	-10.8096
▁၁၉၄၆	-10.8097
▁ဆောင်းဦး	-10.8097
▁အင်းလေး	-10.81
▁အားကိုး	-10.8107
▁အခွံ	-10.8107
▁အိမ်တွင်း	-10.8108
်ဘာ	-10.811
▁ဖယောင်း	-10.8117
▁ရေပူ	-10.8117
▁စာပို့	-10.8122
▁အပြော	-10.8125
▁ဦးဘ	-10.8125
ထက်မြက်	-10.8127
စုံလင်	-10.8127
▁ခန့်	-10.8134
▁စွပ်	-10.8137
▁ဗြိတိ	-10.8143
▁ကြည်လင်	-10.8145
ေဂျင်	-10.8147
ရာဇီ	-10.8159
▁ဘယ်မှာ	-10.8163
▁လက်တင်	-10.8166
▁ခြင်	-10.8172
စည်	-10.8172
ကစား	-10.8173
▁ငှက်မ	-10.8179
▁လှည်း	-10.819
▁လွတ်လပ်ရေး	-10.8195
▁မိတ်	-10.8203
ုန်း	-10.8207
တ်ချ်	-10.8207
▁ဂို	-10.8224
▁လက်မှု	-10.823
နှစ်ခြိုက်	-10.8233
ie	-10.8236
လှေ	-10.8251
ကိုက်	-10.8272
▁တိုးမြှင	-10.8277
▁ကလောင်	-10.8286
ကွာ	-10.829
လယ်စာ	-10.8297
▁ဒိုင်	-10.83
့ဝင်း	-10.8307
ရှိုး	-10.8331
စနစ်	-10.8356
▁ဝိတ်	-10.8367
▁နိုး	-10.8369
▁၃၁	-10.8384
▁တချက်	-10.8391
ရူး	-10.8395
▁ဟာသ	-10.8397
▁နှုတ်ခမ်း	-10.8403
ရှောက်	-10.8405
ဟိုက်	-10.8414
လျှံ	-10.8415
▁ခိုင်	-10.8429
တ်ဆိတ်	-10.8429
ခက်	-10.8431
ချုပ်ဆို	-10.8432
မော့	-10.8436
▁သိုက်	-10.8436
h	-10.8444
ကွန်း	-10.8455
▁အဆစ်	-10.8456
ဒေး	-10.846
ာရိယ	-10.8473
တည့်	-10.8483
▁ဘရ	-10.8492
▁စွယ်စုံ	-10.8507
ကျယ်	-10.8523
မွှား	-10.8548
ကူ	-10.855
ကြိုက်	-10.8552
ခန္ဓာ	-10.8571
ပ်ပြာ	-10.8572
လျား	-10.8572
ဗူး	-10.8573
ပုဒ်	-10.8573
ဗဟို	-10.8573
သိုး	-10.8576
▁ပေါ့ပေါ့	-10.8581
သာရ	-10.8581
ဉာဏ်	-10.8584
ကြိုး	-10.8588
ပေ	-10.8591
နော်	-10.8604
▁မင်းကြီး	-10.8622
▁ဩစတြေးလ	-10.8629
ချမ်းသာ	-10.8658
ချော	-10.866
is	-10.8663
နှော	-10.8682
ွေး	-10.8714
ရောင်း	-10.8717
ချိ	-10.872
းလိပ်	-10.8726
အောင်း	-10.8759
ကြွ	-10.8774
▁ဂဏန်း	-10.8789
ထွင်	-10.8813
သုတ်	-10.8823
▁ဖာရ	-10.8827
▁အတိုင်းအ	-10.8828
းကြိုးစား	-10.8847
တိန်	-10.8866
▁အင်ပ	-10.8875
▁ဆီး	-10.889
▁၁၀ဝ	-10.8892
ောင်းထုတ်	-10.8899
▁နှင်	-10.8904
▁စကြ	-10.8905
▁လောကုတ	-10.8906
ress	-10.8907
▁အပန်းဖြေ	-10.8907
ုင်ကလိုပီးဒီးယား	-10.8907
▁ထေရဝါဒ	-10.8907
▁ခြိမ်းခြောက်	-10.8907
▁တော်သလင်း	-10.8907
▁အလေ့အ	-10.8907
▁check	-10.8907
▁အမှောင်	-10.8907
▁အာဇာနည်	-10.8907
▁ဘောပင်	-10.8907
▁နှေးကွေး	-10.8907
ခေတ္တ	-10.8908
▁နှင်းလျှောစီး	-10.8908
▁ပဉ္စမ	-10.8908
▁မျက်စေ့	-10.8908
သိပ်သည်း	-10.8908
▁နှောင့်	-10.8908
▁ပခုံး	-10.8908
▁ရှီအ	-10.8909
▁ဝက်ဘ်ဆို	-10.8909
▁ဆန်းစစ်	-10.891
▁ကာတွန်း	-10.891
▁နယ်ချဲ့	-10.8912
▁ဆောင်းတွင်း	-10.8912
▁ဖော်ထုတ်	-10.8913
ဘ်စ	-10.8918
▁စွမ်းဆောင်	-10.8921
▁ခံတွင်း	-10.8924
▁လည်ပင်း	-10.8925
▁အသိုင်းအဝ	-10.8925
▁ကင်ဆာ	-10.8926
▁ကျောင်းအုပ်	-10.8926
▁သိမ်းဆည်း	-10.8927
▁ပြိုင်ဘက်	-10.8928
သန်စွမ်း	-10.8931
▁နားနေခန်း	-10.8931
▁သတ်သတ်	-10.8933
▁ခေတ်မီ	-10.8934
▁ပုံပန်း	-10.8937
▁ဆုံးဖြတ်ချက်	-10.8942
ကျကျ	-10.8946
▁အကြောင်းရင်း	-10.8948
▁ဆိုဗီယက်	-10.8949
ထူ	-10.8952
ကင်းရှင်း	-10.8954
▁အကျိုးဆောင်	-10.8958
▁ဒေါ်မန်	-10.8961
▁စတိုင်	-10.8962
▁သန်းခေါင်	-10.8963
က္ကဆီ	-10.8968
ောင့်	-10.8971
▁ရက်သတ္တ	-10.8971
မရှိ	-10.8981
▁ဆော့	-10.8982
▁ဟန်း	-10.8984
▁ခမ်းနား	-10.8985
▁တောက်ပ	-10.8986
▁ဝင်း	-10.8986
▁အတင်း	-10.8988
▁အာဟာရ	-10.899
▁ဂန္	-10.8994
▁အဲ့	-10.8997
▁အထည်	-10.9
▁ပိုးမွှား	-10.9003
ဟု	-10.9005
▁နှေး	-10.9014
ဩ	-10.9016
ဇုန်	-10.9022
▁ကားခ	-10.9029
▁ဇော်	-10.9031
▁R	-10.9039
▁သီရိ	-10.9045
▁သဘောကောင်း	-10.9046
ကိုင်ဖ	-10.905
▁ကျူးလ	-10.9051
ပိုင်ခွင	-10.9053
▁ကူမင်	-10.9059
▁၉၂	-10.9059
▁အမွေးအ	-10.9071
▁တန်ဆာ	-10.9086
လယ်သမား	-10.9087
▁ရောမ	-10.9088
စ်မှု	-10.9105
▁ကွပ်	-10.9112
▁အားလျော	-10.9115
▁နစ်	-10.9124
စို	-10.9128
ဗိုက်နာ	-10.9129
ash	-10.9132
န့်	-10.9145
ကျမ်း	-10.9146
▁စစ်တ	-10.9147
အညစ်	-10.9147
▁ဘုရင့်	-10.9154
▁တစ်ဝန်း	-10.917
▁ဓမ္မ	-10.9177
▁ရုပ်ကြွင်း	-10.9204
မနေ	-10.9204
▁လက်စ	-10.9206
▁အကျဉ်း	-10.9206
▁ဂျွန်	-10.9206
ide	-10.9221
ဂိုး	-10.9227
ဟ်	-10.9237
▁အောင်ပွဲ	-10.9239
▁လေတိုက်	-10.9243
က်လုပ်	-10.9285
မှား	-10.9286
▁.	-10.9291
▁ဦးစား	-10.9299
သေ	-10.9303
▁ရုရှ	-10.9311
တား	-10.9312
ue	-10.9316
▁တစ်ခါတ	-10.9316
▁ကော်မ	-10.9318
ူရင်း	-10.9328
အကြ	-10.9359
ကု	-10.9387
▁သု	-10.9388
▁မကြာမ	-10.9388
▁Lump	-10.9391
၄၇	-10.9397
▁ဝပ်	-10.9409
တက်ကြွ	-10.9411
အကြေး	-10.9412
နုတ်	-10.9429
▁သွားလည်	-10.9433
အသတ်	-10.9434
com	-10.9447
▁Ph	-10.9449
မြင့်	-10.9455
ဆမ	-10.9463
သိက္ခာ	-10.9464
ပြည်လုံး	-10.9468
ရှောင်	-10.9476
ခရီး	-10.9478
▁ဆစ်	-10.948
တိရစ္ဆာန်	-10.9483
အတန်	-10.9487
▁နှာ	-10.9489
အနှစ်	-10.9502
နတ်	-10.9506
အပတ်	-10.9507
များများ	-10.9519
ခြမ်း	-10.9533
တိုက်ခတ်	-10.9567
ရှင်းလင်း	-10.9568
န်းကြယ်	-10.9576
▁မုတ်ဆိတ်	-10.9577
သိ	-10.96
ရွ	-10.9622
▁လျှပ်စစ်ဓာတ်	-10.9623
▁မှီ	-10.9631
ty	-10.9637
▁ခုခံ	-10.9646
▁အမ်း	-10.9659
f	-10.9686
ရီး	-10.9695
မိုးန	-10.9742
ံပြာ	-10.9779
▁နဝ	-10.9798
▁အဝေးပြေး	-10.9806
▁ဂေါက်	-10.9813
▁Phayao	-10.9816
▁အသက်ရှူ	-10.9816
yanmar	-10.9816
ကျွံ	-10.9816
▁မီးဖိုချောင်	-10.9816
▁ပူအိုက်	-10.9816
▁လတ်ဆတ်	-10.9816
▁မဟာတံတိုင်း	-10.9817
▁စက္ကန	-10.9817
acter	-10.9817
▁စိတ်ကူးယဉ်	-10.9817
▁အဝတ်လျှော်	-10.9817
▁ဂက်စ်	-10.9817
▁ဇွဲ	-10.9817
▁ဧည့်ကြို	-10.9817
▁ရာဇဝတ်	-10.9817
ဇ်	-10.9817
▁မော်တော်	-10.9817
တည်တံ့	-10.9818
▁ထကြွ	-10.9818
▁အန်တီ	-10.9818
ဒီယမ်	-10.9818
▁ပျော်ပွဲစား	-10.9818
▁ပေါင်းသင်း	-10.9818
▁ကွဲလွဲ	-10.9818
ဖူလုံ	-10.982
▁ဇာတာ	-10.982
▁ခေါင်းလောင်း	-10.982
▁စိုထိုင်း	-10.9821
▁ဆူပူ	-10.9821
▁ချီးမြှ	-10.9821
▁လမ်းဘေး	-10.9822
▁အကန့်	-10.9823
▁အပြည့်	-10.9824
▁ဖက်ဒရ	-10.9824
▁ပုံသေ	-10.9824
▁ဈေးလျှော့	-10.9824
ီဒီယို	-10.9826
္တရာ	-10.9826
▁အဆင်း	-10.9826
▁မြေညီ	-10.9828
ransi	-10.9828
▁အပေါ်ယံ	-10.9828
▁ဆော	-10.983
▁စံချိန်	-10.9832
ော်ဂျီ	-10.9833
▁အင်ဒို	-10.9834
▁ကုသိုလ်	-10.9835
▁လတ်မှတ်	-10.9836
▁ကပ္ပ	-10.9837
▁သက်ဝင်	-10.984
▁အကိုက်	-10.9846
▁ကျောင်းနေ	-10.9849
▁လပြည့်	-10.985
▁ရှေ့နေ	-10.9853
▁ဦးကျော်	-10.9859
▁ရေပန်း	-10.986
r	-10.9869
▁သောင်း	-10.9869
▁ထွန်	-10.9871
▁ဝင်ရိုး	-10.9872
▁အညွှန်း	-10.9872
▁အခွင့်	-10.9874
▁လက်ဖက်	-10.9885
▁နှိမ်	-10.9886
▁မြသန်း	-10.9889
ot	-10.9894
▁လမ်းဆုံ	-10.9899
▁ဖြာ	-10.99
▁မြတ်နိုး	-10.9902
▁အရွက်	-10.9906
ော်	-10.9907
▁လူနေ	-10.9912
▁မေရီ	-10.9913
ောင်ခို	-10.9914
nd	-10.9914
▁ဖြုတ်	-10.9915
၃၀	-10.992
▁မုန့်	-10.992
▁အနု	-10.9922
▁ဂေဟ	-10.9923
▁ရူပ	-10.9925
▁ရှုထောင	-10.9926
net	-10.993
▁ဓါတ်	-10.9934
ပြာ	-10.9935
▁ငှာ	-10.994
ိုင်အမ	-10.994
▁နိုက်ထရ	-10.9941
▁ကျွတ်	-10.9951
▁တုန်	-10.9974
▁ရုန်း	-10.9979
▁အမြစ်	-10.998
▁a	-10.9981
▁ပုန်း	-10.9985
▁အိမ်ရှင်	-10.9995
▁ဆွ	-11.0004
းရှင်း	-11.0009
ီယမ်	-11.0024
▁ဖန်	-11.0034
မြိုင်	-11.0041
်စွာ	-11.0051
▁အကွက်	-11.0054
▁ပုတ်	-11.0063
ချယ်	-11.007
▁ဂူဂ	-11.0077
▁ရေခဲမုန	-11.0087
ဂျ	-11.0089
နိုး	-11.0101
R	-11.0105
▁နံကာ	-11.0112
▁ကျင့်သ	-11.0115
ွေ့	-11.0129
ဒစ်	-11.0141
▁ချမ်း	-11.0142
▁အဆက်	-11.0162
▁လခ	-11.0186
▁လွယ်လ	-11.0208
ကိုင်း	-11.0267
▁တခါတ	-11.0268
ter	-11.0275
▁car	-11.0277
▁တုတ်	-11.0278
▁ကျွမ်း	-11.0292
▁အက်စ	-11.0294
▁၁၇၆	-11.0305
▁သဲက	-11.031
▁၇၅	-11.0312
as	-11.0315
ice	-11.0343
▁ပြို	-11.0352
မဖြစ်	-11.0358
H	-11.036
▁ခို	-11.0361
k	-11.037
▁ဘိုး	-11.0379
▁၃၀၀	-11.0387
သိသိ	-11.0391
ရှာ	-11.0391
တာရာ	-11.041
▁လေအေး	-11.0411
ဟတ်	-11.0423
▁၁၈၆	-11.043
ပွဲတော်	-11.0441
▁မြို့မ	-11.0446
ချွန်	-11.0447
ညှိ	-11.0451
ကတ္တား	-11.0458
လွယ်	-11.0465
▁ပင့်	-11.0465
နွမ်း	-11.0469
ဂုဏ်	-11.047
ရုပ်ကြွင်း	-11.047
ဖယ်	-11.0477
သို့ဖြင	-11.0479
လုပ်ငန်း	-11.0484
ရက်စက်	-11.05
ကျွေး	-11.0502
ချေး	-11.051
▁ချပ်	-11.0522
အိုင်	-11.053
▁ခဲယ	-11.0531
စကီ	-11.054
▁ကြီးကြီး	-11.056
▁နွယ်	-11.0575
▁Cha	-11.0578
▁Nu	-11.0586
လစ်	-11.059
▁၁၉၁	-11.0591
ရင်းနှီး	-11.0595
အီ	-11.0598
ပြုတ်	-11.0599
ထင်ပေါ်	-11.0604
▁ပန်းတ	-11.0618
ရောင်ခြည်	-11.0642
ကျင့်	-11.0656
လှေကား	-11.0687
တို့	-11.0694
▁ပင်လယ်စာ	-11.0696
ဖရဲ	-11.0702
ပေးဆပ်	-11.0706
tion	-11.073
▁ထာဝ	-11.0736
ယပ်	-11.0745
▁မွန်ဂို	-11.075
တ်တလော	-11.0758
ta	-11.0759
ီဂျစ်	-11.0761
စိန်	-11.0765
ဉ်	-11.0766
သောင်း	-11.0777
ဝါဒ	-11.0781
▁သီ	-11.0783
▁ဆည်	-11.0792
နိ	-11.0808
▁အဘိဓ	-11.0816
▁ယောက္ခမ	-11.0816
▁လေဖိအား	-11.0816
▁အင်ပါယာ	-11.0816
▁မှီငြမ်း	-11.0816
▁အချုပ်အခ	-11.0817
▁ကြိယာ	-11.0817
တယ်လီစကု	-11.0817
▁Thai	-11.0817
▁တရားသူကြီး	-11.0817
▁စည်းစိမ်	-11.0817
▁ဆူးလေ	-11.0817
▁မုဆိုး	-11.0817
▁လောင်ဂျီ	-11.0817
▁အန်ကယ်	-11.0817
▁လောဘ	-11.0817
▁မီးခြစ်	-11.0817
▁Universit	-11.0817
▁ဂျာနယ်	-11.0818
▁ကြက်ခြေ	-11.0818
▁ဟိုဟို	-11.0818
▁ခွဲခွာ	-11.0818
▁ဂျိန်း	-11.0818
▁မော်တော်ကား	-11.0818
▁နောင်တ	-11.0819
▁အရိပ်အ	-11.0819
▁Ad	-11.082
▁ဝမ်းမြောက်	-11.082
▁သာဓ	-11.082
▁ငှက်ဖျား	-11.0825
▁ခွင့်ပြု	-11.0825
▁အသေးစား	-11.0826
ဦးလွ	-11.0827
ဋ်	-11.0827
ဝင်စား	-11.0827
▁အခေါက်	-11.0829
▁ဗြဟ္မ	-11.083
တပါး	-11.0835
▁အလယ်တန်း	-11.0835
▁သွေးထွက်	-11.0837
▁data	-11.0837
▁host	-11.0837
▁စိတ်တို	-11.0838
▁ဘီလ်ဂိတ်စ်	-11.0838
▁ဖလှယ်	-11.0839
▁သစ်ကိုင်း	-11.0841
▁သင်္ကန်း	-11.0842
အေးဆေး	-11.0842
▁အရိပ်	-11.0845
▁စိတ်ပျက်	-11.0846
▁တဝက်	-11.0847
▁စစ်ဌာန	-11.085
ard	-11.085
▁ဆွန်န	-11.085
▁လွမ်း	-11.0852
▁လေပြင်း	-11.0853
▁အပြေး	-11.0854
▁ရိုး	-11.0855
▁အဟောင်း	-11.0855
▁ထိစပ်	-11.0855
ာကျော	-11.0856
▁အုန်း	-11.086
▁အယ်လ်	-11.0867
▁ရပ်နား	-11.0871
▁ဒဂုံ	-11.0874
▁စားပွဲတင်	-11.088
▁အမယ်	-11.0884
န့်	-11.0886
▁ချောင်	-11.0888
▁ကျောက်တိုင်	-11.089
▁အထင်က	-11.0892
င်းမဲ့	-11.0898
ထွန်းလင်း	-11.0899
▁သရုပ်ဖေ	-11.09
▁သိန်းဖေ	-11.0912
▁အဆက်အ	-11.0914
▁သဘောမ	-11.0915
▁နှိုင်း	-11.0915
မတင်	-11.0918
▁မြို့ရိုး	-11.0928
▁တောင်တက်	-11.0932
▁စိတ်မရှိ	-11.0934
mber	-11.0938
te	-11.0938
တီးရီးယား	-11.0941
▁အသာ	-11.0949
▁ပုစ္ဆာ	-11.0949
▁အဖော်	-11.0956
▁ဖြုန်း	-11.097
▁ပူဇော်	-11.0988
▁တိတ်တ	-11.1
▁ခြစ်	-11.1008
▁ပန်က	-11.1009
▁ဥတု	-11.1017
၃၅	-11.1025
▁ဝိသေသ	-11.1025
▁တိုတို	-11.1032
▁လှော်	-11.1035
မဝင်	-11.1036
ရိ	-11.1038
▁ကြည်း	-11.1039
el	-11.104
ell	-11.1042
▁ပျောက်ဆုံး	-11.1042
▁အရှိ	-11.1056
▁မြည်	-11.1058
မှုထမ်း	-11.1065
▁ဆရာတော်	-11.1071
ပူရှိန်	-11.1074
▁ပြုံး	-11.1088
တူး	-11.1095
ရွေ့	-11.1099
ေကျင်း	-11.1105
းအထ	-11.1109
le	-11.1116
▁အပေါ့	-11.1138
ခွင့်	-11.1144
သုံးစရ	-11.1145
▁၃၃	-11.1152
▁နေ့ခင်း	-11.1162
or	-11.1163
▁သို့ဖြင	-11.1172
▁ဆန့်	-11.1191
စ္စတ	-11.1196
န္တ	-11.1197
▁မြှုပ်	-11.1217
at	-11.1221
ဟပ်	-11.1221
ယော	-11.1223
▁ခေါင်	-11.1231
ဂျာ	-11.1232
▁ချဉ်	-11.1243
▁ရော့	-11.1245
▁နောက်ခံ	-11.1251
ar	-11.1257
▁တီ	-11.1267
မျိုး	-11.1283
▁အဝါ	-11.1292
▁စန္ဒ	-11.1299
ျင်း	-11.1305
ဖို့	-11.1329
ဆံ	-11.1338
ွဲ	-11.1347
▁ကန့်	-11.1349
လှိုင်	-11.1351
▁၄၃	-11.1359
▁နျူကလ	-11.1367
▁လူဝင်	-11.1369
re	-11.1383
▁အူ	-11.1396
မြင်း	-11.1406
▁NL	-11.1413
သုက	-11.1414
▁အတန်	-11.143
ဗင်	-11.1435
▁အစို	-11.1438
ပြစ်	-11.1442
၇၄	-11.1467
▁ဂျူ	-11.1469
ဖုံ	-11.1488
ဗော	-11.1503
ဲလ်	-11.1508
ခူး	-11.1509
်ပို့	-11.1509
ဒေါင်	-11.1512
▁ပြာ	-11.1522
▁ဆည်း	-11.1538
မြုပ်	-11.1559
သပ်	-11.1575
ယာမ	-11.1578
ငတ်	-11.1585
လမ်းညွှန်	-11.1591
ရှပ်	-11.1594
တံဆိပ်	-11.1595
သက်သက်	-11.1602
ဘတ်	-11.1608
မျှတ	-11.1616
ထိုင်း	-11.1626
▁၄ဝ	-11.1633
သယ်	-11.1639
ပုံး	-11.1641
လော	-11.1693
▁အချိန်ပို	-11.1696
ဘီး	-11.17
▁ဖို	-11.1712
ဝမ်း	-11.1729
▁ကန်တော်	-11.1738
▁တွန်း	-11.1746
လန့်	-11.1764
cle	-11.1767
ခံယူ	-11.177
၁၂	-11.177
၁၈	-11.1785
၅၈	-11.1796
▁သိပ္ပံနည်း	-11.1811
▁သွက်	-11.1833
ary	-11.1837
န္န	-11.184
ပလက်	-11.1853
ဂွ	-11.1859
ခါတ	-11.186
▁ကျယ်ကျယ်	-11.1867
ါန်	-11.188
ထူး	-11.1881
▁မှုတ်	-11.1885
▁၄၆	-11.1885
▁အကြောင်းပြ	-11.1897
သွင်	-11.1899
▁အနံ	-11.1903
▁အနှံ့အ	-11.1903
▁ကျင်	-11.1905
မှီး	-11.1923
▁စွန့်	-11.1927
▁ဂေါတမ	-11.1928
▁နှမြော	-11.1928
▁ဘတ်စ်ကတ်ဘော	-11.1928
▁မိဖုရား	-11.1928
▁သံယောဇဉ်	-11.1928
▁တိရိစ္ဆာန်	-11.1928
▁အဖျော်ယမကာ	-11.1928
▁ညဉ့်	-11.1928
▁ဖိနှိပ်	-11.1928
▁ခန့်မှန်း	-11.1928
▁မြူနီစီပ	-11.1928
▁မျှော်မှန်း	-11.1928
▁လောင်းကစား	-11.1928
▁ခရု	-11.1928
▁မှီခို	-11.1928
▁ခွန်အား	-11.1928
▁UN	-11.1928
▁ကလိုရို	-11.1928
▁ကယ်တင်	-11.1928
logy	-11.1928
▁ကင်မ်	-11.1929
▁မျိုးချစ်စိတ်	-11.1929
▁ပျားရည်	-11.1929
▁ဆန်ပြုတ်	-11.1929
ညွှန်ကြားရေးမှူး	-11.193
▁ဆေးကုသ	-11.1931
▁ပါးနပ်	-11.1931
▁ပန်းအိုး	-11.1931
▁ဝီကီ	-11.1932
▁စူဇူကီ	-11.1933
▁ပူပြင်း	-11.1933
▁လိုက်လျော	-11.1934
▁စပျစ်	-11.1934
▁ငယ်ရွယ်	-11.1934
▁ဂျူး	-11.1935
ဂရမ်	-11.1935
▁မရေမ	-11.1936
▁အဆက်မ	-11.1936
▁ဘွဲ့လွန်	-11.1937
▁အာဏာသိမ်း	-11.1937
▁ကြွက်သား	-11.1938
▁တရားစွဲ	-11.1938
လှုံ့	-11.1939
▁ဖိတ်ကြား	-11.1939
▁ဓန	-11.1939
▁စွန့်စား	-11.194
လှပ်	-11.194
▁ဂိမ်း	-11.194
▁မီးပူ	-11.1942
ပွ	-11.1942
မော	-11.1943
▁ဓာတ်ခွဲ	-11.1943
▁လျို	-11.1944
▁သတိပြု	-11.1944
▁ခါကာ	-11.1946
▁ချော်လဲ	-11.1948
▁ဝန်ခံ	-11.1949
▁မင်းတုန်း	-11.195
▁မြူ	-11.195
▁ညစ်ညမ်း	-11.1951
▁လက်ချောင်း	-11.1952
▁သုခ	-11.1954
့အတူ	-11.1955
▁တခု	-11.1957
▁ယူန	-11.1958
▁လူမှုရေး	-11.1958
▁ကျီး	-11.1959
▁ဦးဖိုး	-11.196
▁ငါးပိ	-11.1965
▁အရှုံး	-11.1965
▁အကျင့်	-11.1965
▁မှတ်စု	-11.1967
▁တိမ်း	-11.1968
▁ပျော်ဝင်	-11.1969
▁အက်ဒမ	-11.1976
ခင်မင်	-11.1979
▁အဆိုပြု	-11.1984
▁အပြိုင်	-11.1987
▁ဂြိုဟ်ရံ	-11.1989
▁ဟေး	-11.1991
▁နစ်နာ	-11.1994
▁ဥပဒေပြု	-11.1998
▁စေတနာ့	-11.2
ရိုးမ	-11.2
▁ခရီးလမ်း	-11.2008
▁စိမ်	-11.2008
▁ပင်မင်း	-11.2015
▁အကြည့်	-11.202
▁ဦးနေ	-11.2024
▁ငြီး	-11.2034
▁ထိမ်း	-11.2038
▁ပေါ်လစ	-11.2044
▁တင်စား	-11.2045
▁ချော်	-11.2046
ညို	-11.2046
IC	-11.205
▁တသက်	-11.2051
မုတ်	-11.2071
▁bit	-11.2075
▁ခိုး	-11.2075
▁ပျိုး	-11.2079
လေးနက်	-11.2079
▁သပ်သပ်	-11.2083
၁၁	-11.2087
▁နှစ်သစ်	-11.2092
▁နင်း	-11.2092
င်းချက်	-11.2094
NA	-11.2095
▁မဂို	-11.2101
▁ဖိုင်	-11.2103
▁အကို	-11.2105
ထောင့်	-11.2107
eng	-11.2114
▁ရှင်သ	-11.2115
▁အတိုက	-11.212
တိုက်ဆိုင်	-11.2121
▁၅၆	-11.2122
ရှ်	-11.2123
ကိတ်	-11.2125
▁ဂါ	-11.213
▁ပိ	-11.2137
ster	-11.215
▁လူတန်း	-11.215
မြ	-11.2153
▁အီး	-11.2154
ဟန်	-11.2157
▁ဆွတ်	-11.2173
▁ကြွက်	-11.2173
▁ကိတ်	-11.2178
▁ဝဲ	-11.2179
က်စ်	-11.2181
ကေ	-11.2187
▁ရှုံး	-11.219
pe	-11.2203
ကိ	-11.2214
▁မြတ်	-11.2227
မတတ်	-11.2231
▁၉၆	-11.2238
နိသ	-11.2242
▁သီဟ	-11.2244
၅၂	-11.2245
▁ဒေါင်း	-11.225
ပုပ်	-11.2263
▁အတွင်းခံ	-11.2272
▁ပြန့်ပ	-11.2294
ျောင်း	-11.2294
▁မြက်	-11.2297
▁ကြမ်းကြ	-11.2307
စောင့်	-11.2314
▁ဘုရင်မ	-11.2321
်လျူရှ	-11.2323
▁ဘော်	-11.2342
လိုဂျီ	-11.2346
▁ယူဆောင်	-11.2363
▁အချိန်မ	-11.2379
▁အကျ	-11.2383
ီးမ	-11.2384
od	-11.2393
ေးလျ	-11.2416
၉၅	-11.2428
▁တစ်ဆယ်	-11.2437
ရဲ့	-11.2458
ရှင်းရှင်း	-11.2471
ခါစ	-11.2472
▁ကျိုက်	-11.251
ဏီ	-11.2517
▁နတ်မ	-11.2522
▁ဦးအောင်	-11.2533
id	-11.2533
ni	-11.2547
▁လုပ်သား	-11.2554
ာရပ်	-11.2558
ပြတ်သား	-11.2559
▁ကလပ်	-11.2565
ဖောင်း	-11.2567
▁ဝတ္	-11.2573
▁လုပ်အား	-11.2582
းကောင်	-11.2609
▁မောင်နှ	-11.2611
့လ	-11.2612
▁စားကောင်း	-11.2627
မကောင်း	-11.2629
မှတ်ထား	-11.2635
တင်းကျပ်	-11.2639
▁လစဉ်	-11.266
▁ကြဲ	-11.27
▁စတာ	-11.2712
▁သိမ်	-11.2715
perati	-11.272
▁ဆွယ်	-11.272
▁တိတ်	-11.2722
▁ဗက	-11.2727
▁၁ဝဝ	-11.2732
လျင်	-11.275
fel	-11.2753
မြား	-11.2756
▁ဝက်ဝံမ	-11.276
မျော	-11.2766
▁လျှ	-11.2768
ရာမ	-11.2773
ံတော်	-11.278
ခြုံ	-11.2785
က်တစ်	-11.2792
ချမ်း	-11.2803
မှီ	-11.2813
ဂျူ	-11.2813
ဓမ္မ	-11.2832
ရှက်	-11.2834
ဘုံ	-11.2835
စက္ကူ	-11.2841
မုန်တိုင်း	-11.2843
အချက်အ	-11.2844
ဘုရင်	-11.2844
ဥပဒေ	-11.2844
မှတ်တမ်း	-11.2848
စေတီ	-11.2855
ဒေါင်း	-11.2859
ကွေး	-11.2861
အုပ်ချုပ်	-11.2864
ချိတ်	-11.2871
မကြာမ	-11.2873
ခပ်	-11.2874
က်ဆစ်	-11.288
▁လူကောင်း	-11.2883
st	-11.2886
▁သို့ဖြစ်	-11.2899
လောက	-11.2904
▁စူး	-11.2949
▁တစ်ခါ	-11.2956
▁မိုးကာ	-11.2957
၉၆	-11.2962
▁ကန်ပေါင်	-11.2963
▁၃၀၀၀	-11.2966
မြန်	-11.2975
▁ဌာ	-11.3017
▁ကွန်ဂ	-11.3029
နီး	-11.3043
တ္တာ	-11.3045
▁၈ဝ	-11.3046
▁ညောင်	-11.3047
un	-11.3053
ra	-11.3053
မြောင်	-11.3055
တရာ	-11.3068
မင်းသား	-11.3082
ချ်	-11.3091
▁မိုးမ	-11.3102
ေတာ	-11.3107
နံ့	-11.3118
၅၁	-11.3129
▁ပွတ်	-11.313
▁အမျှ	-11.3145
▁အကူ	-11.3145
nes	-11.3154
ဗား	-11.3161
▁လတ္တီ	-11.3171
▁၁၅၀	-11.3172
hon	-11.3173
▁ဂျုံ	-11.3173
▁နည်းဗျူဟာ	-11.3178
▁အီကွေတ	-11.3178
ဒီပနီ	-11.3178
ဝှက်	-11.3178
▁International	-11.3178
▁website	-11.3178
▁စတော်ဘယ်ရီ	-11.3178
▁အဓိပတိ	-11.3178
▁အိုလံပစ်	-11.3178
▁မိတ္တူ	-11.3178
▁နန်ချောင်	-11.3178
မာရ်	-11.3178
▁မုန်လာဥ	-11.3178
▁ကျိန်းသေ	-11.3178
▁ဇာစ်မြစ်	-11.3178
▁မဲဆန္ဒ	-11.3178
▁ဓလေ့ထုံး	-11.3178
▁အရစ်ကျ	-11.3178
▁မဟာမုနိ	-11.3178
▁ဘော့စတ	-11.3178
▁ကနဦး	-11.3178
▁Hual	-11.3178
▁အကာအ	-11.3178
ကြံ့ခိုင်	-11.3178
▁နှစ်သိမ့်	-11.3179
▁ငရုတ်ကောင်း	-11.318
▁အကူညီ	-11.318
▁ငှားရမ်း	-11.318
land	-11.318
▁ဆူဖီ	-11.318
▁နာနတ်	-11.3181
▁မိုးကြိုး	-11.3181
▁လျစ်လျ	-11.3182
▁အခကြေး	-11.3182
▁တိုးတိုး	-11.3183
computer	-11.3183
▁ရှုမြင်	-11.3183
▁တိုကင်	-11.3183
▁ဂျုံး	-11.3185
▁Medic	-11.3185
▁နှုတ်သီး	-11.3185
▁လျှာ	-11.3187
▁ပရိုတို	-11.3188
ကလာပ်	-11.3191
▁အဓိပ္ပာယ်ရ	-11.3191
▁သီပေါ	-11.3191
▁စုဝေး	-11.3192
▁ခြွ	-11.3193
▁ရုံးဆင်း	-11.3194
▁လက်ကောက်	-11.3194
▁ရောင်စုံ	-11.3194
ရုဏ်	-11.3195
▁သာသနာပြု	-11.3196
▁သဘာဝတရား	-11.3198
▁အလုံ	-11.3198
ဋ္ဌာန်	-11.3198
▁ငွေချေး	-11.3199
▁ဒိုင်း	-11.32
တောက်	-11.3201
▁ကောင်းကျိုး	-11.3202
▁အုပ်ချုပ်ခွင့်	-11.3203
▁သက္ကတ	-11.3203
▁အမြင့်	-11.3203
▁ပဋိ	-11.3204
▁တွန့်ဆုတ်	-11.3205
▁ဝေဒန	-11.3205
▁အကြမ်းဖ	-11.3207
▁အချဉ်	-11.3208
▁အော်ပရ	-11.3208
▁ဆင်ဆင်	-11.3209
▁ရွှေရောင်	-11.3209
▁မျိုးချစ်	-11.3211
▁အဆုတ်	-11.3212
▁ဖြေဆို	-11.3212
▁ယောင်း	-11.3213
▁သံစုံ	-11.3213
▁သက်တောင	-11.3215
▁တော်လှန်ရေး	-11.3216
E	-11.3216
▁အပူပေး	-11.3217
▁ဆော့စ်	-11.3217
▁စိတ်အား	-11.3226
▁ဘင်္ဂ	-11.3226
▁ထောင်း	-11.3232
ဇမ်	-11.3233
၅၅	-11.3233
▁၃၄	-11.3234
▁အခက်	-11.3238
▁စားဖိုမှ	-11.3243
ကျိုး	-11.3244
▁ရပ်စ	-11.3245
▁လေးထောင်	-11.325
▁s	-11.3253
▁တင်ဆက်	-11.3257
▁လှံ	-11.3265
▁အိပ်စ	-11.3268
hin	-11.3283
▁အရာရောက်	-11.3288
▁သေးသေး	-11.3291
▁ဗီဇ	-11.3292
ရမ်	-11.3294
ကျော်သူ	-11.3308
▁ပျော့ပျော	-11.332
▁တေး	-11.3321
▁ချိုင့်	-11.3322
ဇာ	-11.3341
အရင်း	-11.3343
▁ရှယ်ယာ	-11.3348
▁၁၈၈	-11.3351
▁အစေ	-11.3353
▁စကော့	-11.3359
▁ရှား	-11.3361
▁wi	-11.3371
▁ပြစ်ဒဏ်	-11.3373
▁လူသတ်	-11.3375
▁စရန်	-11.3381
ရှုမော	-11.3382
▁Bo	-11.3394
▁စစ်တိုက်	-11.3398
မေး	-11.3399
မှိတ်	-11.3407
လတ်	-11.341
▁မျဉ်း	-11.3416
▁တစ်ခွင်	-11.342
▁ဈေးမ	-11.3423
ပေါင်	-11.3434
▁ကြီးပွား	-11.3435
▁၁၈၅	-11.3436
င်စိ	-11.3442
▁ထက်သန်	-11.3454
▁အမည်း	-11.3464
▁စိတ်ရှည်	-11.3465
ထန်	-11.3477
ပုတ္တ	-11.3479
▁ဒေလီ	-11.3485
▁မောင့်	-11.3488
ction	-11.3494
▁အဝင်	-11.3496
▁Ro	-11.3502
၈၀	-11.3503
▁ပက်	-11.3512
▁တရ	-11.3514
စ်မြစ်	-11.3521
▁အနွယ်	-11.3527
▁မြင်မက	-11.3529
▁p	-11.3548
လု	-11.3552
ဘေး	-11.3555
▁ဖမ်းယူ	-11.3556
▁နှစ်ဆယ့်	-11.3557
ဌာန်	-11.3558
▁နေရာချ	-11.3577
▁Ch	-11.3589
မစ်	-11.3599
မပေး	-11.36
▁တာရှည်	-11.36
ese	-11.3607
▁၁၈၉	-11.3609
▁bo	-11.3613
ပက်	-11.362
▁ဘီး	-11.3638
▁နွမ်း	-11.3646
▁ဘော့	-11.366
ရူ	-11.3676
ကုံး	-11.3682
▁သဘာဝကျ	-11.3703
▁တောင်စဉ်	-11.3705
▁လိ	-11.3711
▁နေဝင်	-11.3715
▁လတ်	-11.3722
▁ထန်း	-11.3735
ွေးထုတ်	-11.3742
ွက်	-11.3757
၉၀	-11.377
ss	-11.3774
ကန်း	-11.3781
ဟီ	-11.3784
uri	-11.3792
မင်းကြီး	-11.3793
ton	-11.3793
umph	-11.3805
ကုလား	-11.3805
ခေါက်	-11.3828
▁Se	-11.3832
▁အနီရ	-11.3847
▁code	-11.3854
g	-11.3865
လွှဲ	-11.3876
ျုပ်	-11.3878
▁သုတ်	-11.3881
ပြင်းထန်	-11.3897
ခွာ	-11.3902
▁တင်း	-11.3918
▁ယား	-11.3918
▁ဖျ	-11.3951
▁ပလ	-11.3954
▁၇၁	-11.3959
လှည့်	-11.3964
▁၄၅၀၀	-11.3967
▁ပုံး	-11.3969
min	-11.3972
▁ဖုန်	-11.3983
ဗတ်	-11.3993
▁ကင်းလွတ်	-11.4006
▁တွယ်	-11.4045
ပရိ	-11.4048
▁ခြောက်သ	-11.4068
▁တစ်နည်း	-11.4076
▁မောင်ကျော်	-11.4081
▁တစ်ဆယ့်	-11.4095
▁လောင်း	-11.4105
▁ကေ	-11.4108
▁ဟန	-11.4109
ဟူ	-11.4125
ဘဲ	-11.4135
▁အေဘီ	-11.4143
အနွယ်	-11.4143
▁ခါးပ	-11.4146
တစ်စ	-11.4162
ပုတ်	-11.4164
ger	-11.4188
▁အလိုလို	-11.4193
▁မိုက်	-11.4195
▁မနော	-11.4202
▁ကျကျ	-11.4203
▁လမ်းကြော	-11.4207
an	-11.4207
am	-11.4212
ရှုံး	-11.4215
aw	-11.4217
အသန်	-11.4219
Ma	-11.4225
▁ဆန်ဆ	-11.4226
သွန်း	-11.4226
▁အလှပြင်	-11.4234
လှူ	-11.4237
U	-11.4237
▁လုယ	-11.4239
ia	-11.4242
▁သုံးဆယ့်	-11.4247
ဘဝ	-11.4253
မြည်	-11.4253
ကျေးဇူး	-11.4254
စတာ	-11.4258
ကွပ်	-11.4262
ငှား	-11.4264
မန်း	-11.4264
ဂိုဏ်း	-11.4265
ကျဉ်း	-11.427
၄၅	-11.4272
ကလပ်	-11.4272
အသင်း	-11.4274
ကိစ္စ	-11.4275
အော်	-11.4277
ဆူညံ	-11.4281
အမြတ်	-11.4282
ရှမ်း	-11.4282
ပမာ	-11.4283
ဘူ	-11.4283
ဂန်	-11.4291
ပြုံး	-11.4292
သတ္တု	-11.4294
ဘောင်	-11.4295
နံ	-11.4295
အမှန်	-11.4299
မောင်မောင်	-11.4299
သောက	-11.4299
▁အသက်မွေး	-11.4302
စီးပွား	-11.4308
က္က	-11.4308
ai	-11.4309
ရာပါ	-11.436
၂၆	-11.4387
ge	-11.4388
▁ပွ	-11.439
▁တစ်မျိုး	-11.4391
ate	-11.4393
▁စိတ်ရှုပ်	-11.4394
▁နားမ	-11.4395
▁မျက်နှာပြ	-11.4404
ညာ	-11.441
▁တန်ဆောင်မ	-11.4432
၇၅	-11.4439
▁ဒစ်စ	-11.4447
▁၄၀၀	-11.4453
▁ဂုဏ်သ	-11.4458
မ္မာ	-11.4475
မဟာ	-11.4478
▁အရေးတ	-11.4486
▁လင်္က	-11.449
▁၇၂	-11.4492
ုရင်	-11.4496
ိမ့်	-11.45
ဖော့	-11.45
၁၃	-11.4511
bi	-11.4518
▁အဆူ	-11.4538
▁သလော	-11.454
န္ဒာ	-11.4542
▁ငုံ	-11.4543
de	-11.4547
▁မြောင်း	-11.4587
းရီးယား	-11.4589
မဆို	-11.46
▁ချီးမ	-11.4602
▁ဘတ်စက	-11.4602
နန္ဒ	-11.4602
▁ကျောရိုး	-11.4604
▁အီလက်ထရ	-11.4605
▁အကောင်အထည်	-11.4605
▁ဒေးဗစ်	-11.4606
▁တုပ်ကွေး	-11.4606
▁ဗွီဒီယို	-11.4606
▁ယုတ္တိ	-11.4606
▁အလောင်းမင်းတရား	-11.4606
Engl	-11.4606
ဟမ္မဒ်	-11.4606
▁လမ်းပန်းဆက်သွယ်	-11.4606
▁လွှင့်	-11.4606
▁အသုဘ	-11.4606
▁ထုတ်လွှင	-11.4606
▁မန်ချူး	-11.4606
▁လွှင့်	-11.4606
▁ငတ်မွတ်	-11.4606
▁ဒဂုန်	-11.4606
▁တို့ဗမာ	-11.4606
▁အငြိမ်းစား	-11.4606
▁ပန်ဂျ	-11.4606
▁ရာဇာဓိ	-11.4606
▁Eukaryot	-11.4606
▁ချွေတာ	-11.4606
▁ဝမ်းဗိုက်	-11.4606
▁ဆန့်ကျင်	-11.4606
▁နှမ်း	-11.4606
▁အထွတ်အ	-11.4606
▁ရွှံ့	-11.4606
▁New	-11.4607
▁ညွန့်ပေါင်း	-11.4607
▁မြူမှုန်	-11.4607
ိုက်နှိုက်	-11.4607
▁ဂီယာ	-11.4607
မှုကြီးကြပ်ရေး	-11.4607
▁အုတ်မြစ်	-11.4607
▁ချွတ်ယွင်း	-11.4607
▁လျော်ကြေး	-11.4607
▁Char	-11.4607
ဝီ	-11.4607
▁စွန့်လွှတ်	-11.4607
▁အာဖဂန်	-11.4608
▁လိပ်ပြာ	-11.4608
ထွာ	-11.4608
▁ပါရဂူ	-11.4608
▁မောင်းနှင	-11.4608
▁ဝက်ပေါင်	-11.4608
▁ခရိုင်ဝန်	-11.4608
▁ငေး	-11.4608
▁ဟဲဟ	-11.4609
▁ပင်လယ်အော်	-11.4609
▁ပျက်သု	-11.4609
▁ကိုယ်ဝန်	-11.4609
▁တစုံတ	-11.4609
▁ငါးဖမ်း	-11.4609
▁မြက်ခင်း	-11.461
▁အသက်မွေးဝမ်းက	-11.461
နက်နဲ	-11.461
▁ဒေါ်ရွှေ	-11.4611
▁ပြင်းပြ	-11.4611
▁အပြည့်အ	-11.4611
▁ကိုယ်ကျိုး	-11.4611
▁လက်ဝှေ့	-11.4611
▁မျက်နှာသုတ်	-11.4611
▁ချီကာ	-11.4612
▁မြစ်ဖျား	-11.4614
▁ရုံးပိတ်	-11.4616
▁မဇ္ဈ	-11.4617
▁ကွာလာလ	-11.4618
▁ပျား	-11.4618
▁ဟင်းရွက်	-11.4619
▁ဝင်ခွင့်	-11.4619
▁တိဘက်	-11.4621
▁မိုးခေါင်	-11.4622
▁တိုင်းရင်းဆေး	-11.4623
▁ဗိုလ်မှူးချုပ်	-11.4624
▁အသက်ရှု	-11.4624
ောနစ်	-11.4625
နေ့ည	-11.4626
▁ယမင်း	-11.4626
▁ရှုံးနိမ	-11.4626
▁ယူရို	-11.4627
▁စာလုံးပေါင်း	-11.4627
▁Unite	-11.4628
▁အိမ်မွေး	-11.463
▁အိမ်မက်	-11.463
အရောင်	-11.4631
rd	-11.4632
▁လီကွမ်ယ	-11.4632
▁မဒရ	-11.4634
ရွား	-11.4634
▁အလှူ	-11.4634
▁လခြမ်း	-11.4635
သူရ	-11.4636
▁ရေချို	-11.4637
▁ပတ္တမြား	-11.4638
▁ဗညား	-11.4638
ish	-11.4639
▁မြေနိမ့်	-11.464
▁အပင်ပန်း	-11.464
▁ဧကရာဇ်	-11.4641
Sl	-11.4644
▁အကိုင်း	-11.4644
lu	-11.4645
▁ဘိန်း	-11.4646
▁ဦးချစ်	-11.4646
▁အနူး	-11.4646
▁၉၇	-11.4646
ဗရ	-11.4647
▁အိမ်ခြေ	-11.4654
▁အဖတ်	-11.4655
▁အလှည့်	-11.4656
ive	-11.4657
▁အင	-11.4658
ဒါး	-11.4658
▁ရှေ့တန်း	-11.4659
ွီဒ	-11.4661
▁လက်တို	-11.4661
▁ဦးသန်း	-11.4663
▁ဝါကျ	-11.4663
လှပ	-11.4664
▁ငြင်းဆ	-11.467
▁Ac	-11.4671
▁ခရမ်း	-11.4672
▁တု	-11.4675
တော်ကြီး	-11.4678
▁ကြမ်းတမ်း	-11.468
▁တိုတယ်	-11.468
▁လက်တွဲ	-11.468
▁ဂုဏ်ထူး	-11.4693
▁ပလ္လင်	-11.4695
▁အတ	-11.4699
▁အဝိုင်း	-11.4699
▁ချစ်စရာ	-11.4699
▁တစ်သောင်း	-11.4701
▁ကုန်းမြေ	-11.4709
▁မီးခံ	-11.4709
▁အစေ့	-11.4722
စာအုပ်	-11.4723
▁တာဝန်ကျ	-11.4723
▁ဇက်	-11.4725
ာဗို	-11.4725
▁မျိုးစု	-11.4728
▁တော်ဝင်	-11.4728
▁ဟိုင်း	-11.4729
သွင်ပြင်	-11.4729
▁ကိုယ်လက်	-11.4733
▁စိတ်ပါ	-11.4734
၅ဝဝ	-11.4736
▁၉၅	-11.4737
မ်းခံ	-11.4738
▁ဓ	-11.4739
ပြုံ	-11.4739
▁ပင်စင်	-11.4741
▁နည်းပြ	-11.4744
▁ဈေးဆိုင်	-11.4746
▁ဆင်ယင်	-11.4748
▁search	-11.4748
▁သန့်	-11.4752
▁ဇော	-11.4759
▁အင်းဆက်	-11.4761
▁ပဲင	-11.4762
▁ဝံ့	-11.4764
ည်လု	-11.4766
▁အားသာ	-11.4766
▁ရှည်ရှည်	-11.4768
▁၈၀၀	-11.4782
ွေးနွေး	-11.4787
ွန်း	-11.4789
▁ကမ္ဘာဦး	-11.4793
▁ဂျင်း	-11.4795
▁မွှေ	-11.4798
▁စည်းဝေး	-11.4803
▁အမူအကျင	-11.4804
▁ဆမ်း	-11.4809
il	-11.481
ယိုင်	-11.483
ဆောင်း	-11.4831
▁Chin	-11.4831
▁ခြေချော	-11.4835
▁စိမ့်	-11.4857
စေး	-11.4862
ဒေ	-11.4877
▁inter	-11.4886
AS	-11.4892
▁ရေနေသ	-11.49
▁ပြန်ပေး	-11.49
▁ဆိုရိုး	-11.4907
▁၁၃၀	-11.4908
▁ငြ	-11.4908
▁ယွန်း	-11.4922
▁လှူ	-11.4923
▁Bu	-11.4925
တော်ကြာ	-11.4932
▁အဆိုး	-11.4947
▁အပိုင်	-11.495
▁ထိထိ	-11.4951
ီရန်	-11.4956
▁ပြည်ထောင်	-11.4963
ုမန်	-11.4968
▁Har	-11.4975
ဆာဘ	-11.4978
▁ကမ္ဗ	-11.4989
age	-11.499
အောင်ကျော်	-11.4991
▁ပေးပို့	-11.4994
▁နန်	-11.4998
့ရှစ်	-11.5009
ေရီ	-11.5009
ဖွ	-11.5012
▁ဘောင်	-11.5019
os	-11.5023
နည်းစနစ်	-11.5034
▁စကားရ	-11.5049
NG	-11.505
▁မု	-11.5054
▁အတောင်	-11.5058
▁၁၇၈	-11.5065
ယန်း	-11.5068
ွာ	-11.5068
▁အယ်	-11.5068
▁စစ်ရေး	-11.5069
▁char	-11.5071
▁ရာဇဌာန	-11.5072
၉၂	-11.5077
▁နာမ	-11.508
အမေရိကား	-11.5086
▁အစွန်	-11.5089
မာမာ	-11.5102
▁တင့်	-11.5104
င်ရွှေ	-11.5109
ဆုပ်	-11.5109
▁ဘူတ	-11.5111
တလဲ	-11.514
▁မော်	-11.5145
▁ကတ္တား	-11.5154
▁ညှိ	-11.516
▁တစ်ဖက်	-11.5161
▁အိုင်	-11.5167
▁၁၃၅	-11.518
ရမ်း	-11.5184
▁အမှီ	-11.5191
▁Nation	-11.5205
ပြည့်	-11.5207
▁မျိုးစိ	-11.521
▁ဩ	-11.5214
၂၃	-11.5241
▁sc	-11.5243
▁သေသေ	-11.5259
ားတိုက်	-11.5269
စုံစုံ	-11.5273
ယ်ဝေး	-11.5281
ဖျော်	-11.5284
▁၁၈၄	-11.5322
ချန်	-11.5329
▁လွင့်	-11.5333
tar	-11.5349
စုရုံး	-11.5356
ri	-11.5364
▁စိတ်အေး	-11.5364
၆၁	-11.5365
▁တစ်စ	-11.5369
▁၀	-11.5392
င်းမာ	-11.5395
▁ရှောက်	-11.5395
up	-11.5396
၉၉	-11.5398
၁၆	-11.5402
ကျူး	-11.5414
▁ပုဝါ	-11.5423
▁၈၅	-11.5425
ရယ်	-11.5431
▁၁၀၀၀၀	-11.5442
ပူတ	-11.5451
တတ်နိုင်	-11.5467
မြင့်တန်း	-11.5475
ဟိုင်း	-11.5479
ဒူ	-11.5498
▁g	-11.55
ထိတ်	-11.5511
▁တစ်ဦးတ	-11.5518
▁နေသာ	-11.5529
ဟော	-11.5531
င်ဘတ်	-11.5533
သန့်	-11.5536
၂ဝဝဝ	-11.5537
LD	-11.5556
ြောင်း	-11.5579
▁နှစ်ဦး	-11.5614
ှုန်း	-11.5623
▁ငတ်	-11.564
▁သန်းတစ်	-11.5642
ီယန်	-11.5673
၀၆	-11.5678
▁အကြေး	-11.5698
၃၈	-11.5701
▁Mo	-11.5716
▁လန်း	-11.572
▁နုံ	-11.5721
ငြင်းပ	-11.5725
စွတ်	-11.5736
IS	-11.5738
းထည်	-11.575
၅၃	-11.5751
▁အတိ	-11.5759
▁ဂျင်	-11.5766
ာရီ	-11.5768
သင့်	-11.5774
ူဝံ	-11.578
▁To	-11.5783
▁သီး	-11.579
▁သစ်ခေါ	-11.5814
▁မျိုးတူ	-11.5822
၆၄	-11.5823
ခွေ	-11.5824
ထွင်း	-11.5825
ဖွဲ	-11.5825
▁ဒုံး	-11.5838
iam	-11.5842
စင်း	-11.5851
မည်	-11.5857
ကြံ	-11.5867
ဝဲ	-11.5869
အဆင်	-11.5872
▁ထီးနန်း	-11.5877
ew	-11.588
ဆဲ	-11.5885
အလင်း	-11.5894
▁သုပ်	-11.5896
၇၆	-11.5898
မနော	-11.5904
ထစ်	-11.5909
ငှ	-11.5912
ငိုက်	-11.5917
အီမ	-11.5921
ဝိသေသ	-11.5924
ဒက်	-11.5925
ဆွတ်	-11.5926
ညစ်	-11.5927
လှော်	-11.5929
any	-11.593
ကတိ	-11.5931
တိုတို	-11.5932
ဝက်ဝံ	-11.5935
လှဲ	-11.5936
ချွတ်	-11.5937
ဆေးဝါး	-11.5939
ဘူမိ	-11.5939
တင်းနစ်	-11.5941
လွတ်လပ်	-11.5942
အမြန်	-11.5944
တန်ဆာ	-11.5945
▁ယေ	-11.5946
လုံးရေ	-11.5949
အင်္ဂါ	-11.5949
မျောက်	-11.5954
▁တစ်ကိုယ်	-11.596
rade	-11.5977
အားလုံး	-11.5981
အများ	-11.5983
နှိပ်	-11.5984
လခ	-11.5985
စွယ်	-11.5991
▁၁၂၅	-11.6027
ay	-11.6031
ပြည့်ဝ	-11.604
ယင်း	-11.6041
ထိုက်	-11.6043
ခိုင်း	-11.6046
၁၉	-11.6047
ကျယ်ကျယ်	-11.605
၈၂၄	-11.6059
အလေး	-11.6061
ောဇ	-11.6098
▁ထော	-11.6101
G	-11.6103
▁၅ဝဝဝ	-11.6104
▁၁၈၃	-11.6109
ေ့	-11.6123
▁၁၅၀၀	-11.6127
ော့	-11.6137
▁တွန်းလှ	-11.6138
စိမ့်	-11.6139
ှတ်	-11.6142
▁ဗိုက်ပြည	-11.6144
▁၅၀၀၀	-11.6166
၇၈	-11.6166
ဘိန	-11.617
စ္စ	-11.6184
လွ	-11.6193
▁ငြိမ်း	-11.6206
ပြိုင်နက်	-11.6212
▁ထုံ	-11.6217
ငံ	-11.6217
▁စီအ	-11.6218
မြန်ဆန်	-11.6229
▁သီလ	-11.6241
▁စာပို	-11.6256
းဆေး	-11.6257
II	-11.6265
▁မန်ကျည်း	-11.6269
က်သုတ်	-11.6271
▁သံချေး	-11.6271
ညှင်း	-11.6272
▁Hua	-11.6272
ဏ္ဍာရ	-11.6273
ဏ္ဏ	-11.6273
နိဗ္ဗာန်	-11.6273
▁American	-11.6273
▁Institute	-11.6273
▁program	-11.6273
▁www	-11.6273
▁ခံနိုင်ရည်	-11.6273
▁ဂုံလျှော်	-11.6273
▁နှစ်ဦးနှစ်ဖက်	-11.6273
▁မဟာယာန	-11.6273
▁ရှာလကာရည်	-11.6273
▁သိုလှောင်	-11.6273
▁အလယ်အလတ်	-11.6273
▁အိုင်အိုဒင်း	-11.6273
▁ဩရိဿ	-11.6273
▁ကိန္နရီ	-11.6273
▁ချောကလက်	-11.6273
▁စိတ်ဖိစီး	-11.6273
▁နိဂုံး	-11.6273
▁ဗီးနပ်	-11.6273
▁ဗျူဟာ	-11.6273
သ္မ	-11.6273
▁အလုပ်လက်မဲ့	-11.6273
▁မှေးမှိန်	-11.6273
▁သင်းသင်း	-11.6273
▁သတို့သား	-11.6273
▁ယူနီဗာစီတ	-11.6273
▁နျူကလိယ	-11.6273
▁သံမဏိ	-11.6273
▁ဂယ်လီလီယို	-11.6273
▁ဘုံဘိုင်	-11.6273
▁ကြို့ပင်	-11.6273
▁ကမာကောင်	-11.6273
▁ပိဋကတ်	-11.6273
▁ပါးစောင်	-11.6273
မှားအယွင်း	-11.6273
ဂီရိ	-11.6273
▁အုန်းနို့	-11.6273
▁ကုန်းဘောင်	-11.6273
သွယ်သွယ်	-11.6274
▁ဟမ်ဘ	-11.6274
▁ကောက်ညှင်း	-11.6274
▁ပဋိဇီဝ	-11.6274
▁ဂျယ်လီ	-11.6274
▁Air	-11.6274
▁ဆီးချို	-11.6274
▁ငရုတ်ဆီ	-11.6274
▁သွေးပေါင်	-11.6274
▁မြေခွေး	-11.6274
▁အကျဉ်းထောင်	-11.6275
▁ad	-11.6275
▁မြေပြန့်	-11.6275
▁Bit	-11.6275
▁မှတ်ဉာဏ်	-11.6275
▁LA	-11.6275
▁မုန်တိုင်းဒဏ်	-11.6275
▁သတိမထား	-11.6275
▁ဇိမ်ခံ	-11.6275
▁အချိုးအစား	-11.6276
▁နှိုးစက်	-11.6276
ဖိလစ်	-11.6276
▁အဝါရောင်	-11.6277
▁ကြောက်မက်	-11.6277
▁စုံထောက်	-11.6277
▁ပီပီ	-11.6277
▁မသိမ	-11.6277
ဂံ	-11.6277
▁ဓနု	-11.6278
▁အကြီးကျယ်	-11.6278
▁မှတ်ကျောက်	-11.6278
ျှောစီး	-11.6278
▁ပိုးသတ်	-11.6278
▁အုန်းသီး	-11.6278
▁လယ်ယာမြေ	-11.6278
▁အော်ဒါ	-11.6279
▁တစ်နေ	-11.6279
▁ဒေါ်သိန်း	-11.6279
▁နဖူး	-11.6279
ယမကာ	-11.628
▁ကွာဟ	-11.628
▁ကိုယ်ဝန်ဆောင်	-11.628
▁ဟောပြော	-11.628
▁အပွင့်	-11.628
orld	-11.6281
ီးအို	-11.6281
▁လယ်ကွင်း	-11.6282
▁မှန်းဆ	-11.6282
▁ပိုင်နက်	-11.6283
▁ကြက်တောင်	-11.6283
▁စစ်မှုထမ်း	-11.6286
ေဗာ	-11.6286
▁ဗြဟ္မာ	-11.6286
သပ်ရပ်	-11.6287
▁မိုးဇက်	-11.6287
▁ကျောရိုးရှိ	-11.6288
▁၁၉၅၄	-11.6288
ေဗျ	-11.6288
▁အလိမ်	-11.6289
▁ကမာရွတ်	-11.6289
▁ဆုကြေး	-11.629
စံပယ်	-11.6291
▁အစ္စ	-11.6291
▁အနှိပ်	-11.6291
သျှ	-11.6292
▁ကြေးဝါ	-11.6293
ရှိုင်ယာ	-11.6293
▁ပြန့်	-11.6293
▁ဗာ	-11.6293
၈၇	-11.6293
▁လမ်းပိတ်	-11.6294
▁အပ်နှံ	-11.6294
▁ကလေးထိန်း	-11.6295
▁အလ	-11.6296
အဟုန်	-11.6296
▁ပြဇာတ်ရုံ	-11.6297
▁၆၀၀	-11.6297
▁ရှုမ	-11.63
▁သံလိုက်	-11.63
၂၈	-11.6301
▁ဖြန့်	-11.6301
▁လက်င	-11.6303
▁တောတောင်	-11.6305
▁လက်သုတ်	-11.6305
ပံ	-11.6307
▁လက်မောင်း	-11.6308
▁အချက်ပြ	-11.631
▁၁၉၈၁	-11.631
ao	-11.631
▁ပို့စကတ်	-11.6311
▁SA	-11.6312
▁ယိမ်း	-11.6312
▁မိုးကောင်းကင်	-11.6312
▁ကြေကွဲ	-11.6313
▁ဂေါ်	-11.6313
ရာဇာ	-11.6313
▁တောင့်တ	-11.6313
▁နားရွက်	-11.6314
▁၈၄	-11.6316
▁ချိန်းဆို	-11.6317
▁စုတ်ပြတ်	-11.6319
▁Genera	-11.632
▁အထီး	-11.6321
▁လေမှုတ်	-11.6323
ထက်သန်	-11.6325
▁ဗဟိုချက်	-11.6325
သုန်သုန်	-11.6326
မားမား	-11.6327
သု	-11.6327
▁ပစ်ချ	-11.6328
ပြောင်မြောက်	-11.6331
heck	-11.6331
I	-11.6331
▁ပတ္တ	-11.6333
▁မှတ်ချက်	-11.6335
▁အရွေး	-11.6335
▁မြောက်မြားစွာ	-11.6337
ါ်	-11.6339
set	-11.6343
▁၁၀၅	-11.6344
ေမွ	-11.6348
ဘေ့စ်	-11.6349
▁ဂွတ	-11.635
▁မြစ်ဝ	-11.6351
▁ကျေ	-11.6352
တင်းကြပ်	-11.6359
▁ရေနက်	-11.6362
▁စုတ်	-11.6362
ဖျင်	-11.6363
war	-11.6366
we	-11.6368
▁အထူးတလ	-11.6369
▁encod	-11.6371
▁၇၃	-11.6372
▁နှိုက်	-11.6373
ick	-11.6373
▁ဘိ	-11.6375
▁ရှောင်ဟုန်	-11.6376
▁အသားညှပ်	-11.6377
▁ဗုံး	-11.638
▁အညာ	-11.6381
▁အအုပ်	-11.6382
လည်လည်	-11.6384
▁ဘလက်	-11.6385
▁ဗလီ	-11.6386
▁သုတ်သ	-11.639
နာပြု	-11.6394
▁ဖူန	-11.6395
ဆက်က	-11.6397
▁မို	-11.6399
ပီကေ	-11.6402
ကြွယ်	-11.6402
▁အမိုး	-11.6404
းကပ်	-11.6407
းနား	-11.641
ပျော်ရွှင်	-11.6411
▁ရမ္မာ	-11.6415
▁စီးနင်း	-11.6416
အတုတ်	-11.6421
ဖေါင်း	-11.6424
▁ဂျို	-11.6429
▁အသစ်အ	-11.6432
▁အကြောင်းအ	-11.6433
CP	-11.6433
▁ရေလွှာလ	-11.6438
▁ပင်ကို	-11.6439
▁ထွား	-11.644
▁ဗန္ဓုလ	-11.6443
▁ကျင့်	-11.6447
SC	-11.6451
▁စာမူ	-11.6453
▁ခွံ	-11.6459
▁စည်းကမ်းရှိ	-11.6464
ံဖန်	-11.6465
▁အဆုံးအ	-11.6466
lor	-11.647
▁ခြ	-11.6471
form	-11.6472
▁စိတ်ပိုင်း	-11.6472
ဒယ်	-11.6472
▁ခေတ်နောက်	-11.648
▁ပေါ်လီ	-11.6482
▁ပွင့်	-11.6482
ရာအ	-11.6494
၃၁	-11.6501
ver	-11.6501
▁ခြယ်	-11.6511
▁ငရဲ	-11.6511
▁လှလှ	-11.6519
▁တန်ဆောင်	-11.6531
▁ပေါင်မုန	-11.6538
မြေး	-11.6546
▁ဆဋ္ဌ	-11.6548
▁ကိုသူရ	-11.655
ညင်း	-11.6576
▁ထွင်း	-11.6582
ကိုယ်တော်	-11.6586
ဗျူ	-11.6596
▁အမ်	-11.6598
ပမ်း	-11.66
▁ဟူသ	-11.6604
▁စွန်	-11.6604
ထုံး	-11.6606
uan	-11.6607
ူးယ	-11.6633
ပွေ	-11.664
▁ဗြ	-11.6643
ိတ္တ	-11.665
▁အီမ	-11.6674
ရောက်ရောက်	-11.6678
ထင်	-11.6679
▁နောက်ဆက်	-11.668
▁စိတ်ကောင်း	-11.6686
▁ပြာသ	-11.6689
▁အခုလေး	-11.6693
▁မြင့်မ	-11.6705
▁ဗီဒ	-11.6707
▁ငိုက်	-11.6711
▁ဝက်မ	-11.6716
ချင့်	-11.6722
▁မောင်မောင်	-11.6722
အေးစက်	-11.6728
းဒ	-11.6733
ူရီ	-11.6737
န်မှန်	-11.6738
sh	-11.674
ကျော်ကြား	-11.6741
▁ပစ်ခ	-11.6747
▁အရံ	-11.6747
▁ဇာ	-11.6748
ပရင်	-11.6761
းတန်း	-11.6775
၄၂	-11.6778
အစ	-11.6785
▁အကျိုးရှိ	-11.6789
▁ရွတ်	-11.6792
အိမ်သား	-11.6795
▁လပေး	-11.6812
▁ဘေ	-11.6815
▁မြစ်ကမ်း	-11.6819
▁အားရ	-11.6819
▁လုပ်ခ	-11.682
ောက်ချာ	-11.6827
▁Su	-11.6833
▁အဝေးကြည့်	-11.6833
ရှယ်	-11.6833
▁၁၈၂	-11.6843
▁do	-11.6852
▁ဆေးကု	-11.6864
▁အထက်လူ	-11.6871
ုတ်တံ	-11.6872
▁လှိုင်	-11.688
ရွယ်အ	-11.6891
င်စစ်	-11.6892
▁ကျို	-11.6893
ုလင်	-11.6912
▁ယပ်	-11.6918
စလင်း	-11.6929
းမောင်း	-11.6941
▁အရိုက်	-11.6944
ian	-11.6948
▁st	-11.6949
▁la	-11.6961
်သီး	-11.6968
▁ရေးစပ်	-11.6969
▁စော်	-11.6971
ဆား	-11.6974
▁သိက္ခာ	-11.6982
▁ကွမ်း	-11.6995
▁ပလက်ဖေ	-11.7034
▁ဂါဝ	-11.7049
ကြိတ်	-11.705
▁သမ	-11.7053
▁ကျစ်	-11.7064
▁ဂွမ်း	-11.7064
ွေ့လျော	-11.7089
▁ဂျေ	-11.7117
wa	-11.7118
▁တပေါင်း	-11.7159
အတင့်	-11.7161
ကိုင်ဆောင်	-11.7166
ီရ	-11.7169
▁ကွေး	-11.7204
ီဆို	-11.7222
▁၃၉	-11.7226
န်မာ	-11.7228
ရှေ့	-11.7228
လျှော	-11.7251
na	-11.7257
▁မြို့စား	-11.7258
du	-11.7272
ွှာ	-11.7278
တွေး	-11.7303
▁၉၃	-11.7327
န္ဓရ	-11.7328
▁၁၈၀	-11.7338
▁ရောဂါပိုး	-11.7347
မေ	-11.7351
ိုင်းပြ	-11.7352
▁ဆူး	-11.7364
ထို	-11.7386
▁အုံး	-11.7389
▁ယုတ်	-11.7392
၇၇	-11.7394
▁ချန်လ	-11.7413
ကြွကြွ	-11.7415
လိမ်	-11.7427
iang	-11.7447
စိ	-11.7447
▁အသွေး	-11.7448
ထမ်း	-11.7451
▁အာရုံစ	-11.7457
▁မွှေး	-11.7468
မား	-11.7482
တိတ်	-11.7502
▁ပြောင်	-11.7505
အပ	-11.7512
ဇော်	-11.7535
ical	-11.7539
▁လွှမ်း	-11.7546
နှ	-11.755
ပေါ့	-11.7559
မင်	-11.7603
rti	-11.7606
tic	-11.7608
▁ခွ	-11.7615
သော့	-11.7618
င်းအား	-11.7634
၆၃	-11.7645
▁m	-11.7706
▁ခွင်	-11.7707
c	-11.7711
ဟေ	-11.7718
▁ဒက်	-11.772
▁ခူး	-11.7723
▁ဟီလ	-11.7734
ာဂါ	-11.7739
▁ဆံသ	-11.7739
ာင်း	-11.774
▁ဂွမ်	-11.7746
မိုင်း	-11.7755
▁ဦးရွှေ	-11.7755
ဟက်	-11.7755
၀၇	-11.776
ပျို	-11.7778
▁၅၃	-11.7784
ငုံ	-11.7798
▁ကိုလှ	-11.7804
နှောင်	-11.7809
▁စိုစွ	-11.7814
ul	-11.7822
▁၆၂	-11.7827
မှော်	-11.7842
ခြိုက်	-11.7845
▁ရဲရဲ	-11.7853
တ်သတ်	-11.7859
ါတ်	-11.7866
ညှစ်	-11.7877
ဈ	-11.7881
ကြဲ	-11.7882
ယောဂ	-11.7889
ပွန်	-11.789
ဝှေ့	-11.7897
ကြွား	-11.7898
ဟိုင်	-11.7903
ငါးဆယ်	-11.7903
ောက်ခံ	-11.7904
ဂွမ်း	-11.7905
ျက်အ	-11.7905
အာရုံ	-11.7905
ညောင်	-11.791
စ်ပစ်	-11.7924
ပူဇော်	-11.7925
စမစ်	-11.7926
သီရိ	-11.7926
ယွမ်	-11.7927
စီဒီ	-11.7928
ခြစ်	-11.7928
ပတ်လမ်း	-11.7929
မေတ္တာ	-11.7935
တံခါး	-11.794
ကမ်းခြေ	-11.794
မြန်မာ	-11.7941
ဘော်	-11.7942
ဆက်ဆံ	-11.7945
ဖြေ	-11.7946
ort	-11.7947
အမ်း	-11.7948
လှိုင်း	-11.7951
mo	-11.7957
ပုန်း	-11.7959
ကန့်	-11.7962
်ဘိုင်	-11.7967
▁နှစ်ရာ	-11.7967
ဂ်	-11.7974
မာလာ	-11.798
တုန်	-11.7988
ရွေ	-11.7989
သာယာ	-11.7992
အရာရှိ	-11.7994
▁လှောင်	-11.7996
နီလာ	-11.8001
▁Be	-11.8006
▁Cent	-11.8009
ခေါင်းဆောင်	-11.8011
▁ဓာတ်မ	-11.8014
▁တုံ	-11.803
▁လျော	-11.8034
လော့	-11.8037
းကား	-11.804
▁စည်	-11.8044
▁ခုတ်	-11.8045
▁ရံ	-11.8052
နာမ	-11.8058
စ်ယောက်	-11.806
၁၇	-11.8062
▁ခိုက်	-11.8067
န်ပိန်	-11.8069
▁လင်	-11.807
ခုန်	-11.8072
▁ကိုယ်လုံး	-11.8075
▁လျှပ်စစ်မီ	-11.8092
ှိ	-11.81
ဗျ	-11.8107
ont	-11.8111
ီနို	-11.8139
▁ဥမင်	-11.8142
▁နိုက်	-11.8145
▁တာဝန်သိ	-11.8155
▁အီရ	-11.8159
▁ဒေါ်မြ	-11.8163
ညံ	-11.8166
င်းဝေ	-11.817
▁Me	-11.8209
▁၁၉ဝ	-11.8213
ထွ	-11.8214
▁မီးရှ	-11.8216
ိုက်လှဲ	-11.8217
ဇိုင်း	-11.8224
▁မာကျ	-11.823
လှယ်	-11.8232
▁ဂျိမ်း	-11.8245
▁t	-11.8247
▁အတက်	-11.8247
ရုပ်ပြ	-11.825
dwar	-11.8258
▁me	-11.8262
▁ဆေးညွ	-11.8264
▁ခင်ဗျ	-11.8265
▁ချေမ	-11.8266
▁ဝက်ဘ်	-11.827
▁ဩစတ	-11.8272
▁Mr	-11.8272
ိတ်ငြိမ်	-11.8272
ပုဂ္ဂလ	-11.8272
awgyi	-11.8273
hemical	-11.8273
oundation	-11.8273
လှေသင်းအတွင်းဝန်	-11.8273
▁စစ်သေနာပတိ	-11.8273
▁ဆွစ်ဇ	-11.8273
▁ထိခိုက်ဒဏ်ရာ	-11.8273
▁ဒိုမီနီယ	-11.8273
▁ဒို့ဗမာ	-11.8273
▁ဓါး	-11.8273
▁နိက္ခမနီယ	-11.8273
▁နှစ်ဆန်းတစ်ရက်	-11.8273
▁နှိမ့်	-11.8273
▁ပအိုဝ်	-11.8273
▁ဖီလော်ဆိုဖ	-11.8273
▁မကျက်တကျက်	-11.8273
▁မွန်ဂိုးလီးယ	-11.8273
▁အငွေ့အသက်	-11.8273
▁အျူကား	-11.8273
▁ဥပါယ်ဂို့	-11.8273
illion	-11.8273
▁အလေးအနက်	-11.8273
▁ဘုရားရှိခိုး	-11.8273
▁အရောင်အဆင်း	-11.8273
▁River	-11.8273
▁စလုတ်	-11.8273
▁အယ်လဖာ	-11.8273
▁အသံလွှင	-11.8273
▁အကျပ်အတည်း	-11.8273
▁တစ်နည်းအားဖြင	-11.8273
▁သခွား	-11.8273
ILLI	-11.8273
▁Guang	-11.8273
▁Internet	-11.8273
မဟာရဋ္ဌ	-11.8273
▁sub	-11.8273
ellow	-11.8273
▁Chiang	-11.8273
▁သောင်းကျန်း	-11.8273
▁မော်ဒယ်	-11.8273
▁မွန်းလွဲ	-11.8273
▁GDP	-11.8273
▁ကျုံ့	-11.8273
▁အကြွင်းမဲ့	-11.8273
ဟိုက်ဒရိ	-11.8273
▁ဆားဗစ်	-11.8273
▁Code	-11.8274
orce	-11.8274
ညှိုး	-11.8274
▁Ray	-11.8274
န်းစန်း	-11.8274
▁ထူးချွန်ဆု	-11.8274
တက္ကသိုလ်ဝင်တန်း	-11.8274
▁ယူရေန	-11.8274
▁ဝက်အူ	-11.8274
▁အောက်မေ့	-11.8274
▁ဒေါ်စိန်တ	-11.8274
orb	-11.8274
▁ရှီးအ	-11.8274
ီယွန်	-11.8275
▁အာရုဏ်	-11.8275
▁ချိစ်	-11.8275
ာနတ	-11.8275
▁ချောမွေ့	-11.8275
▁မဂဒူ	-11.8275
▁လှိုက်လှ	-11.8275
▁Ren	-11.8275
▁လူ့ဘောင်	-11.8275
ပလတ်စ	-11.8275
ka	-11.8275
▁ဒိုမ	-11.8276
ism	-11.8276
▁အမဲလိုက်	-11.8276
▁ရယ်မော	-11.8276
▁စိတ်နှလုံး	-11.8276
▁လက်စသတ်	-11.8276
king	-11.8277
▁စာရေးစားပွဲ	-11.8277
▁အမြန်ချော	-11.8278
▁ခြေတံ	-11.8278
▁လှော်ကား	-11.8278
▁o	-11.8279
ဘီလူး	-11.8279
▁အော်တို	-11.828
ျွမ်းဘား	-11.828
▁နတ်ဘုရား	-11.8281
▁အလို့ငှ	-11.8281
ector	-11.8281
တုတ်ကွေး	-11.8282
▁သံအမတ်	-11.8282
▁ဘွတ်	-11.8282
မြွာ	-11.8283
▁အထည်ကိုယ်ရှိ	-11.8283
▁တေဇ	-11.8283
▁အမျိုးမြတ်	-11.8283
▁၉ဝ	-11.8285
သွားလမ်းလာ	-11.8286
ဇွတ်	-11.8286
ရှုပ်ထွေး	-11.8286
▁မောတောင်	-11.8286
▁အပျော့	-11.8288
ညင်သာ	-11.8288
▁As	-11.8288
▁အနွေး	-11.8288
▁ဆွမ်း	-11.829
▁စိန်ဂ	-11.829
▁ရေပိုက်	-11.829
▁ကိတ်မုန့်	-11.8292
▁ရေညှိ	-11.8293
▁လူနာတင်	-11.8294
▁သားမွေး	-11.8294
▁ထိပ်သီး	-11.8295
▁အင်းယား	-11.8295
▁ရောင်ပြန်	-11.8295
▁သားရဲ	-11.8295
▁appl	-11.8296
တ်လွတ်	-11.8297
▁ဝါရီရူ	-11.8297
▁၃၂၀	-11.8298
▁မေဂျာ	-11.83
▁မိုးလင်း	-11.8302
▁သက်သ	-11.8302
▁စစ်မက်	-11.8302
▁တိုင်းတစ်ပါး	-11.8302
▁ဆီမီး	-11.8303
ဖျပ်	-11.8303
▁နာမ်	-11.8303
ရေးဆရာ	-11.8303
are	-11.8304
်နိုမီ	-11.8304
▁အရှက်	-11.8304
ိုက်မြို	-11.8305
▁ဝါထပ်	-11.8306
▁၁၂၀	-11.8306
▁၁၈၇	-11.8306
▁Time	-11.8311
▁ပြည့်ပြည့်	-11.8311
ညီညာ	-11.8312
▁အရပ်သုံး	-11.8313
▁စာတတ်	-11.8314
▁ထီ	-11.8317
▁သုတေသ	-11.8319
▁ပုရောဟိတ	-11.8319
▁Altair	-11.8319
▁မုန်ညင်း	-11.8319
▁တံငါ	-11.8319
▁ခရင်မ်	-11.832
▁Lake	-11.832
▁serv	-11.832
န်းကျန်း	-11.832
▁လက်ခုပ်	-11.832
▁ကောက်ချက်	-11.8321
▁အနုတ်	-11.8322
▁လက်ဝတ်	-11.8322
▁သွေးကြော	-11.8323
▁ညည်း	-11.8323
▁ဂျီအ	-11.8325
▁မတ်တတ်	-11.8325
▁ဆယ့်	-11.8326
▁လုံခြုံရေး	-11.8327
▁အက်ဆီ	-11.8328
▁စွတ်	-11.8329
▁မဲပေး	-11.833
▁စိတ်နေ	-11.833
▁တောရွာ	-11.8332
▁ပရိယာ	-11.8334
▁အပြင်ပန်း	-11.8336
▁In	-11.8336
▁thi	-11.8338
၆၀၀၀	-11.8338
▁CA	-11.8338
▁လာဘ်	-11.8341
▁အဝေးပြေးလမ်း	-11.8341
▁ဓာတ်ပြား	-11.8343
▁သတိရှိ	-11.8343
▁သမင်	-11.8344
▁ပြဿ	-11.8346
ောက်ဖျာ	-11.8353
နန်းစံ	-11.8354
▁ဂရုမ	-11.8354
▁ပရိုတင်း	-11.8354
မိန့်	-11.8357
▁ဆုပ်	-11.8361
▁အတော်ကြာ	-11.8366
eb	-11.8366
▁မြား	-11.8368
▁သော်တာ	-11.8372
▁အတုံး	-11.8375
▁con	-11.8377
▁မကျေနပ်	-11.8377
▁အရူး	-11.838
▁တန်းတူ	-11.8384
ီတင်း	-11.8386
▁ကဝိလက္ခဏ	-11.8387
▁အကောက်	-11.8388
▁ကိတ်မုန	-11.8388
▁အဖျက်	-11.8388
ဂုံ	-11.8388
▁ရင့်	-11.8393
▁ပျဉ်	-11.8393
နဲ	-11.8398
▁နဲနဲ	-11.8401
▁ထားဝယ်	-11.8401
ပျ	-11.8402
▁Am	-11.8403
▁မြိန်	-11.8403
▁ဖြူစင်	-11.8406
▁နွေတာ	-11.8408
းယန်း	-11.841
▁အိမ်သုံး	-11.8413
▁ရေသန့်	-11.8417
▁ဆင်းတု	-11.8418
ဖော	-11.8419
▁မွေးစား	-11.842
ဗလ	-11.8423
ore	-11.8425
Tu	-11.843
ီးဒီးယ	-11.8443
▁Lad	-11.8444
▁မရူ	-11.8446
▁လူတိုင်း	-11.8448
ိမ	-11.845
▁ကုန်ထုတ်	-11.8451
ာဗ	-11.8456
▁ဝတ်စား	-11.8456
▁ဘိုင်	-11.8459
▁ပုရ	-11.846
▁လှမ်းကြည	-11.8461
ပါတ်	-11.8463
▁ဖိ	-11.8463
▁သုံးထပ်	-11.8467
လဗေဒ	-11.8471
က်တက်	-11.8471
▁ရေစီး	-11.8478
ဂူ	-11.8478
▁အစမ်း	-11.8483
▁ဘင်	-11.8484
▁ဝှိုက်	-11.8484
▁ကယ်လီ	-11.8485
ဘေးဒဏ်	-11.8486
ဂု	-11.8486
▁အရော	-11.8488
ကြ	-11.8493
▁ဖျောက်	-11.8498
▁အခေါင်း	-11.8501
အားပေး	-11.8507
ရီးယား	-11.8508
▁ရင်အုပ်	-11.8508
▁ဖီး	-11.8509
uke	-11.8509
▁ဂျက်	-11.8509
able	-11.8511
ER	-11.852
▁စတော့	-11.8521
▁ကုန်တင်	-11.8522
▁ဆက်သ	-11.8534
▁မွန်းတည	-11.8548
▁Alb	-11.8549
▁နန်းတ	-11.8549
▁ဇင်း	-11.8549
ဘိ	-11.8549
ဆင်ဖြူ	-11.8554
▁Li	-11.8556
ိုးမ	-11.8569
▁ဖျော့	-11.857
ေးရိုး	-11.8571
၈၃	-11.8571
ပျစ်	-11.8581
ke	-11.8582
ဏေ	-11.8586
ဇ္ဇ	-11.8587
▁လုံးလုံး	-11.8588
ရပ်ဖ	-11.8596
ack	-11.8601
ဖြ	-11.8606
▁၁၃၇	-11.8619
ီရို	-11.8634
▁ခုံရုံး	-11.864
မဲ	-11.8647
▁အက်စ်	-11.8651
▁ဝှေ့	-11.8656
▁c	-11.8658
▁ကွတ်	-11.8668
ောက်လုပ်	-11.8671
စွက်	-11.8677
▁ကြားခံ	-11.8678
▁ကန့်	-11.8679
လမ်	-11.8685
▁နီးနီး	-11.8686
ow	-11.87
ance	-11.8704
စ်ကိုင်း	-11.8712
▁ထွက်ပြေ	-11.8714
▁စီဒီ	-11.8715
▁Ha	-11.8721
ment	-11.8723
▁အတက်အ	-11.8726
အာ	-11.8734
ရွန်	-11.874
ရိုးရှင်း	-11.8742
သလို	-11.8744
▁လျှပ်စစ်ဓာတ်အား	-11.8747
းနက်	-11.8747
▁up	-11.8754
ရေစာ	-11.876
▁ဓာတ်လှေ	-11.8766
▁မော့	-11.8767
▁Burma	-11.878
▁အေးစက်	-11.8786
ာပြေ	-11.8787
၂ဝ	-11.8787
▁အစက်	-11.8789
ပွေ့	-11.8793
ပေမ	-11.8817
လူး	-11.8818
်သက်သာ	-11.8818
▁ဟောက်	-11.8819
▁ချူ	-11.8825
▁အောက်ခံ	-11.8829
▁၁၅ဝ	-11.8834
▁ဝက်ဆ	-11.8836
▁ပင်နယ်	-11.8838
ကျန်း	-11.8851
ဝဝဝဝဝဝ	-11.8857
ွ	-11.8859
▁တစ်ဆက်တ	-11.8868
ုတင်	-11.8868
▁ရူး	-11.887
၂၂	-11.8872
ယ်ရ	-11.8881
▁ဦးတင်	-11.8884
အမြစ်	-11.8902
လမ်းမ	-11.8908
▁ပြည့်နှ	-11.8917
ုပ်ထု	-11.8918
▁ထစ်	-11.8922
ရှုး	-11.8929
▁တံတ	-11.8934
စ်တင်	-11.8936
▁စီးရပ်	-11.8936
ဂေ	-11.8946
ုပ်တု	-11.895
▁ဒြ	-11.8953
▁b	-11.8959
းဆ	-11.8965
ထူးခြား	-11.8967
၂၁	-11.8968
▁၁၂၃	-11.8968
ပ်ဆင်	-11.8969
▁ဆေးစာ	-11.8971
▁၄၁	-11.8971
▁ဘလောက်	-11.8975
၆ဝဝ	-11.8979
အူ	-11.898
▁ယော	-11.8992
ele	-11.8999
▁နီရဲ	-11.8999
ယမ်း	-11.9001
သက်သာ	-11.9017
ကွန်	-11.9019
▁မြုပ်	-11.9022
ဂွန်	-11.9023
ျား	-11.9028
▁ဒေါ	-11.9037
lin	-11.9039
▁ပုပ်	-11.9047
ill	-11.9059
w	-11.906
ိပ်	-11.906
▁စေတီပု	-11.907
▁ဒီရေ	-11.9073
▁အစာချ	-11.9083
ble	-11.9092
▁တနေ့တ	-11.9094
ကော	-11.9101
▁သွန်	-11.9106
▁ဆေးဖ	-11.911
က်ဆင်	-11.9111
န်ဂို	-11.9118
▁အညီအ	-11.9121
ung	-11.9143
စနိုး	-11.9145
▁၃ဝဝ	-11.916
▁အပြုအ	-11.9162
ဂေါ့	-11.9172
▁ဘီအို	-11.9184
ဆယ့်နှစ်	-11.9186
၃၂၆	-11.9189
▁Re	-11.9191
မြင့်မြတ်	-11.9192
ထည့်	-11.9194
ို့တွဲ	-11.9199
က်သက်	-11.9199
နွ	-11.92
ယဉ်	-11.9213
nso	-11.9217
ပြစ်ဒဏ်	-11.922
▁စန်း	-11.922
▁တစ	-11.9222
b	-11.9229
▁ကိုကိုး	-11.9251
▁ဂျွန်ဆ	-11.9252
အက်စ်	-11.9256
ွန်မဆ	-11.9263
▁မြူး	-11.9271
▁ကိုရဲ	-11.9288
▁ညင်	-11.9288
sis	-11.9296
im	-11.93
▁သတိမ	-11.9308
▁စားသောက်ခန်း	-11.9313
▁Pa	-11.9315
▁ကတုံး	-11.934
းလျှော	-11.9346
▁ဝါရ	-11.9347
စာရ	-11.9374
်ဩ	-11.9379
ဖြေး	-11.9389
ခွန်	-11.9397
▁Sou	-11.9397
ဗစ်	-11.9404
ီးတောင်	-11.9413
ဆည်	-11.943
က်ဝင်	-11.9447
▁ဖျော်	-11.9454
တိပေး	-11.9468
သားသား	-11.9479
▁ယက်	-11.9481
▁ကိုးဆယ့်	-11.9485
▁i	-11.9499
yster	-11.951
▁ဂျာမ	-11.9511
၉၀၀	-11.9542
ီမော	-11.9553
▁ဂင်	-11.9554
ုန်	-11.9556
မက	-11.9571
▁မလိုင်	-11.9583
ရပ်ဝန်း	-11.9597
ောကြာ	-11.9601
di	-11.9602
▁Si	-11.9608
▁ဂျာ	-11.961
ကျီ	-11.9612
▁တာဝန်ထမ်း	-11.9613
ညပ်	-11.9624
မျက်	-11.9627
▁တူရ	-11.963
ြီး	-11.9633
▁Man	-11.9638
▁ကိုးဆယ်	-11.9643
ကာယ	-11.9658
▁Gr	-11.9662
လူကြီး	-11.968
က်စပ်	-11.9681
rat	-11.9684
▁အဖွဲ့အ	-11.9691
ဖ်	-11.9696
▁အိုးအိမ်	-11.9696
▁လူစု	-11.9705
▁၅၁	-11.9705
▁ယာဉ်စီး	-11.9745
တ်လပ်	-11.9747
းကြပ်	-11.9761
စတ	-11.9772
▁Te	-11.9773
က်မဲ့	-11.9774
ston	-11.9778
ခိုက်	-11.9779
၈၈	-11.9787
▁အခင်း	-11.9787
းမြစ်	-11.9797
▁စက်လှေ	-11.9797
ီကာ	-11.9799
▁ရှန်	-11.9802
▁ရင်ပြင်	-11.981
မိုက်	-11.9815
ire	-11.9816
▁Sa	-11.9851
▁သောက	-11.9874
▁၁ဝဝဝ	-11.9874
မုန့်	-11.9876
၃၆	-11.9877
▁Lin	-11.9881
▁Car	-11.9885
သာမ	-11.9897
မနာ	-11.9899
uc	-11.9906
ယ်မြေ	-11.992
uth	-11.9925
▁ဂရိတ်	-11.9929
မပြ	-11.9943
▁အမေး	-11.9954
ဘား	-11.9962
▁နယ	-11.9965
မှုတ်	-11.9977
▁မွန်း	-12.0003
၀၈	-12.0004
ဗီး	-12.0004
▁အဖုံ	-12.0016
ပြန့်	-12.0019
ur	-12.0025
▁ဟောင်	-12.0029
ောင်ကြဉ်	-12.003
းရိုး	-12.0035
မြူ	-12.0037
ci	-12.0043
▁ခေါင်းမာ	-12.0044
ုး	-12.0048
ဝ၄	-12.0049
▁ဂယ	-12.005
▁အဖျော်	-12.005
▁ချောစ	-12.0054
ကော်	-12.0067
နွေး	-12.0079
▁သရ	-12.0088
▁၆၄	-12.0091
တ်ရှု	-12.0093
းတော	-12.0098
ျက်	-12.0103
ယန်	-12.0115
▁ရိပ်	-12.0116
▁ကြောက်လန	-12.0124
ဟုန်	-12.013
မပါ	-12.0165
▁၁၁၀	-12.0165
▁ပညာ့	-12.0168
လှည်း	-12.0168
ေဟာ	-12.0171
ပလာ	-12.0173
ကော့	-12.0175
လင့်	-12.0193
့တာ	-12.0203
chin	-12.0208
ကျောင်းသား	-12.0224
ဖမ်း	-12.0233
မြက်	-12.0233
ဝန်ကြီး	-12.0233
ဓ	-12.0241
၀ဝ၀	-12.0251
ခုံး	-12.0269
▁ခြေချ	-12.0286
င်ဂျီ	-12.0306
ကျေနပ်	-12.0307
▁မထင်မ	-12.0307
ဟစ်	-12.0321
ညား	-12.0324
ည်သူ	-12.0332
▁pi	-12.0338
▁မြှောက်	-12.0339
▁ကျယ်ကျယ်ပြန	-12.0341
▁ဒဏ်ခ	-12.0341
▁ဘုရင်မင်း	-12.0343
ကြက်	-12.0344
စိမ်	-12.0355
▁သာသာ	-12.0359
ah	-12.0365
ကျေ	-12.0367
ကွမ်	-12.0371
ပျော့	-12.0375
▁ရင်းဂ	-12.0377
ကြွေး	-12.0381
နှိုး	-12.0382
ချာချီ	-12.0382
▁Pe	-12.0385
နိမ့်	-12.0388
ဋ္ဌမ	-12.0393
ဟွန်း	-12.0394
န်တူ	-12.0394
▁ကျိုက္	-12.0399
ဖျော့	-12.0405
▁မြို့ကြီး	-12.0406
မွှေ	-12.041
ခြယ်	-12.0415
ငရဲ	-12.0416
ဖောင်	-12.0416
သတ်ပုံ	-12.0421
ရှယ်ယာ	-12.0422
ဖြည့်	-12.0422
သပ်သပ်	-12.0422
ငှာ	-12.0423
ဒုံ	-12.0423
ပုစ္ဆာ	-12.0424
မျို	-12.0424
ဖြုန်း	-12.0424
ဓါတ်	-12.0426
နှိမ်	-12.0426
ပျိုး	-12.0429
ပုစွန်	-12.0432
နှေး	-12.0433
ညှပ်	-12.0434
ဇော	-12.0435
ale	-12.0436
အမိန့်	-12.0437
ဆန္ဒ	-12.0437
အာဖ	-12.0439
ဘောဂ	-12.0439
ရှာဖွေ	-12.044
ရွေးကောက်	-12.044
မင်္ဂလာ	-12.0441
အိပ်	-12.0444
ဓာတု	-12.0445
ပင်လယ်	-12.0446
အတ္ထ	-12.0453
မှတ်တိုင်	-12.0453
မြည်း	-12.0454
ကျွဲ	-12.0455
▁၉၁	-12.0458
▁စကားစ	-12.0459
▁လမ်းထောင	-12.0467
ခန့်	-12.0475
တဝင်	-12.0478
ခြင်	-12.0478
don	-12.048
▁အံ့သ	-12.0484
ဟောက်	-12.0489
သိုက်	-12.0495
nu	-12.05
ak	-12.0513
▁စိမ်းလန်း	-12.0516
▁sa	-12.052
အပင်	-12.0537
ဖိုင်	-12.0548
ဆန်းသစ်	-12.0551
ဟို	-12.0554
အတန်း	-12.0561
ဦးစီး	-12.0563
တုတ်	-12.0565
လက်အေး	-12.057
▁တစ်ရာ့	-12.0572
ကျဲ	-12.0572
rin	-12.0577
▁အသံကျယ်	-12.0581
bit	-12.0584
▁၂၁၅	-12.0592
ော်ရည်	-12.0596
ဒိ	-12.0608
ာလန်	-12.0648
စည်းဝေး	-12.0661
▁Po	-12.0662
▁အထူ	-12.0667
ဆွ	-12.0668
act	-12.0682
versi	-12.0687
▁အန	-12.0687
▁စက	-12.0693
nt	-12.0697
▁အုံ့	-12.0699
▁စံန	-12.07
▁လျော်	-12.0708
အောက်ဆိုက်	-12.0717
▁ဥယ	-12.0726
ည်တံ	-12.0743
ေ့ချ	-12.0745
ဆုံးဖြတ်	-12.0747
v	-12.0748
ျှမ်း	-12.0754
▁စွန်းထ	-12.0755
ဋ	-12.0758
▁အသားအရေ	-12.0759
ာဟာရ	-12.0759
▁ရှော	-12.0759
ခန်	-12.0762
cho	-12.0763
▁အထည်ကိုယ်	-12.0763
ူဇူကီ	-12.0763
▁ထွက်ခွ	-12.0766
▁အလာစ	-12.077
▁ထရော်လီ	-12.0773
▁လော့စ်အိန်ဂျယ်လ	-12.0773
▁ပိုလီနီးရှ	-12.0773
▁အစာမကြေ	-12.0773
▁အမြှေး	-12.0773
▁အူအတက်	-12.0773
part	-12.0773
▁Sukhum	-12.0773
▁USAID	-12.0773
▁period	-12.0773
▁စိတ်အနှော	-12.0773
▁စွယ်စုံကျော်ထင်	-12.0773
▁ဆွဲငင်	-12.0773
▁ဖျတ်ကနဲ	-12.0773
▁ဘီစကစ်	-12.0773
▁မလ္လာယု	-12.0773
▁မာဖလာ	-12.0773
▁မာလကာ	-12.0773
▁ယောကျာ်း	-12.0773
▁ရိုင်းစိုင်း	-12.0773
▁လတ်လတ်ဆတ်ဆတ်	-12.0773
▁လေကောင်းလေသန	-12.0773
▁အကိုးအကား	-12.0773
▁အက္ခရာဝလိ	-12.0773
▁အဏ္ဏဝါ	-12.0773
စတန်းဖို့ဒ်	-12.0773
ရီယယ်	-12.0773
▁North	-12.0773
▁ကျည်းကန်	-12.0773
▁ခန္တီး	-12.0773
▁ချန်ပီယံ	-12.0773
▁ဗိုင်းရပ်	-12.0773
▁ဝက်သစ်ချ	-12.0773
▁သားအမိ	-12.0773
▁အဏုမြူ	-12.0773
▁အပြောအဆို	-12.0773
ဆတ်ဆတ်	-12.0773
▁ကုဋေ	-12.0773
▁ကွန်ကရစ်	-12.0773
▁ဂရုဏာ	-12.0773
▁ဂျီးဇက်	-12.0773
▁စင်္ကြန်	-12.0773
▁စူပါမားက	-12.0773
▁သင်္ဂြ	-12.0773
▁လက်ဘက်ရည်	-12.0773
illiam	-12.0773
▁ဘိုကင်	-12.0773
▁google	-12.0773
▁ကောက်ကျစ်	-12.0773
▁မီနာမီကီ	-12.0773
▁နှဲ	-12.0773
▁Comm	-12.0773
▁ဘက်မလိုက်	-12.0773
▁ငါးမျှား	-12.0773
▁လေပြွန်	-12.0773
▁အချည်း	-12.0773
ohn	-12.0773
▁ဂါးဒီ	-12.0773
▁စာစီစာ	-12.0773
▁user	-12.0773
▁စပါက	-12.0773
▁မက်တာဗော	-12.0773
▁လောဂျစ်	-12.0773
▁ကျီးကန်း	-12.0773
▁Park	-12.0773
▁ဝေလငါး	-12.0773
▁ကွမ်းဆော်	-12.0773
▁အစွန်းချွတ်	-12.0773
tandard	-12.0773
▁ဂျပ်ဆင်	-12.0773
▁Sir	-12.0773
▁sp	-12.0773
soft	-12.0773
▁မျက်ခုံး	-12.0773
▁အိုင်းယန်း	-12.0773
pre	-12.0773
▁ပိတုန်း	-12.0773
uare	-12.0774
▁ဝက်မင်စတာ	-12.0774
lack	-12.0774
well	-12.0774
▁ပျင်းရိ	-12.0774
▁Bill	-12.0774
ာသီသ	-12.0774
▁Sun	-12.0774
▁Tai	-12.0774
▁so	-12.0774
ဂတိ	-12.0774
▁ပူပန်	-12.0774
ဓိ	-12.0774
▁ညှဉ်းပန်း	-12.0774
▁လုနီး	-12.0774
RC	-12.0774
▁iP	-12.0774
▁ဗိုလ်လု	-12.0774
▁မျက်ခွံ	-12.0774
▁နှိမ့်ချ	-12.0774
ren	-12.0774
ဂုတ္တ	-12.0774
▁စတုဂံ	-12.0775
▁ကန့်သတ်	-12.0775
▁Sea	-12.0775
▁အတတ်သင်	-12.0775
ကန့်လန့်	-12.0775
▁Bar	-12.0775
▁Red	-12.0775
ကျိုးနွံ	-12.0775
▁Dom	-12.0775
▁ဆည်းဆာ	-12.0775
▁စီချွမ်	-12.0775
▁ဘွဲ့ထူး	-12.0776
▁ခေါက်ဆွဲကြော်	-12.0776
▁စေအံ	-12.0776
▁အတိတ်နိမိတ်	-12.0776
▁ကျင့်ဝတ်	-12.0776
ပွစိ	-12.0776
▁မာတိ	-12.0776
▁ပုတိ	-12.0776
းရော့	-12.0776
▁ပေါလ်	-12.0776
▁ဗန်က	-12.0776
▁တံခါးဖွင့်	-12.0776
▁လောင်းကြေး	-12.0777
▁တက္ကသိုလ်ရိပ်သာ	-12.0777
▁အင်းအိုင်	-12.0777
▁ဖီလို	-12.0778
▁ဆာမောင်	-12.0778
▁၁၇၈၂	-12.0778
အမ်ဘီ	-12.0778
▁မိတ်ကပ်	-12.0778
▁မျက်မြင်	-12.0778
▁ငလိုက်	-12.0778
▁ယဇ်	-12.0778
▁တွက်ခြေ	-12.0779
▁လှည်းတန်း	-12.0779
▁Dal	-12.0779
ol	-12.0779
▁ဗိုင်	-12.078
▁မိုးပြာ	-12.078
ိုထိုင်း	-12.078
▁ဖြတ်တောက်	-12.078
▁မြင်းပု	-12.078
▁မလွဲမသ	-12.078
▁ပြန်ပြော	-12.0781
▁ဦးဘိုး	-12.0781
▁ချွဲ	-12.0781
နံနံ	-12.0781
▁သံကြိုး	-12.0782
ဖိုးန	-12.0783
▁လည်ဆံ	-12.0783
▁ဂျိုး	-12.0783
ဗရာဟ	-12.0783
▁နှိုင်းရ	-12.0784
▁ကွန်ဖူး	-12.0784
▁မာစီ	-12.0784
▁တစ်ရာတစ်ဆယ့်	-12.0784
▁စျေးပေါ	-12.0785
ရိပ်သာ	-12.0786
▁မိုးနှ	-12.0786
▁ခြေချော်	-12.0787
▁အာခေါင်	-12.0787
▁ခြောက်ဆယ်	-12.0787
▁ချိုသာ	-12.0787
▁အစာခွံ	-12.0788
▁နှုတ်ထွက်	-12.0789
▁ဗို့	-12.0789
gia	-12.0791
▁ရှရီ	-12.0791
IA	-12.0791
▁ရောဘတ်	-12.0794
▁အမျက်	-12.0795
▁ပပျောက်	-12.0797
▁ဖျားနာ	-12.0797
▁ဘေးမဲ့	-12.0797
▁ပလပ်	-12.0797
ထိန်	-12.0797
ှုတ်ချ	-12.0798
▁အခိုက်	-12.0799
▁အပျို	-12.0799
▁အထမ်း	-12.0799
ညှာတာ	-12.0799
▁သက်တော်	-12.08
▁မူပိုင်ခွင	-12.08
▁အူရ	-12.08
▁လက်ဖ	-12.0801
▁မြစ်ငယ်	-12.0802
▁အပေါ်ဝတ်	-12.0802
▁ဟင်္သာ	-12.0802
▁စွဲချက်	-12.0803
▁ကွင်းပြင်	-12.0803
▁အကြော	-12.0804
▁ပေါင်ချိန်	-12.0804
စူလတန်	-12.0804
▁စီရင်ချက်	-12.0805
▁ကမ္ဘာအေး	-12.0807
▁ကျန်စစ်	-12.0807
▁လူအများ	-12.0807
▁၂၅၆	-12.0808
▁မြေဆီ	-12.081
off	-12.0812
▁ကွန်ဖ	-12.0815
▁ဒု	-12.0816
▁လူမျိုးနွယ်	-12.0816
▁နီကိုဗ	-12.0817
၈၉	-12.0817
▁ရက်က	-12.0819
▁သိပ္ပံပညာ	-12.0819
▁စာကလေး	-12.0821
▁အထင်မ	-12.0821
စွဲမြဲ	-12.0822
▁သရုပ်ပြ	-12.0825
ဂျင်း	-12.0826
▁လက်ဝါး	-12.0826
ီဆော	-12.0828
▁ခရီးဝေး	-12.0829
သက်ရှည်	-12.0829
ဒိဋ္ဌ	-12.0832
▁ဘေးဒုက္ခ	-12.0834
▁chemist	-12.0834
▁တွန့်	-12.0834
▁ရှဉ့်	-12.0834
▁သင်္ချိုင်း	-12.0834
▁ဒိုင်နိုဆော	-12.0834
▁သံသရာ	-12.0835
▁တွေ့ကြုံ	-12.0835
▁အလော	-12.0835
▁ပူပင်	-12.0836
▁ဒစ္စ	-12.0836
▁ဘရိတ်	-12.0837
▁အက်ဖ်	-12.0838
▁ဆန့်	-12.0838
▁ပွဲလမ်း	-12.084
သင်း	-12.0843
▁ပြတ်ပြတ်	-12.0844
ေးလီး	-12.0845
ဓူဝ	-12.0846
DP	-12.0846
▁တွင်းထွက်	-12.0848
▁ဦးဖေ	-12.0848
▁စမ်းချောင်း	-12.0848
▁ရာမည	-12.0848
▁ဘေးရန်	-12.0849
▁မြှင့်	-12.0852
▁ဂျိုင်း	-12.0853
▁၆၇	-12.0853
▁အနေရ	-12.0853
▁ဉာဏ်ရည်	-12.0857
▁ဘဲဥ	-12.0858
▁အလျှော့	-12.0859
▁နွားမ	-12.086
▁စကားဝိုင်း	-12.0861
▁ကာကွယ်ဆေး	-12.0861
ရဟန်းမင်း	-12.0863
ွင့်	-12.0863
▁ကျောင်းအပ်	-12.0863
းတိမ်	-12.0864
▁ဒေါ်ခင်	-12.0868
▁တိုင်းမ်	-12.0869
▁စပယ်	-12.0869
▁ခွေးမ	-12.087
▁မကျေ	-12.087
▁လေ့ကျင့်ရေး	-12.0874
▁အောက်စ	-12.0877
ချစ်	-12.0881
▁မော်လ	-12.0881
လျှို	-12.0881
▁ဟန်ရေး	-12.0884
သွက်လက်	-12.0886
▁အဆိုးရွား	-12.0889
▁နို့စ	-12.0893
စံနန်း	-12.0897
ရှုံ့	-12.0899
▁အောင်စိုး	-12.0902
ib	-12.0905
ဝိသ	-12.0907
ရှီး	-12.0908
▁အပြတ်	-12.0908
▁ဖေါက်	-12.0909
▁ခေတ်ပြောင်း	-12.0912
ပဒေသာ	-12.0914
အိပ်ချ်	-12.0915
▁၂၅၀	-12.0919
လျူ	-12.0921
▁organi	-12.0924
န်ဇန်	-12.0926
▁အခုန	-12.0926
၃၀၀	-12.0929
ီးရီးယား	-12.0931
▁ဘူ	-12.0933
▁စိတ်ရင်း	-12.0935
▁ညောင်း	-12.094
▁နှပ်	-12.094
▁ပျော်ပွဲ	-12.0941
▁ထင်းရှူး	-12.0942
▁ဂတ်စ်	-12.0942
▁တောင်တွင်း	-12.0943
▁တခဏ	-12.0943
▁အရှုပ်	-12.0944
ကရီ	-12.0946
▁ဝေဝေ	-12.0953
ချိန်း	-12.0954
▁လေလံ	-12.0958
▁ဂရင်း	-12.0963
တလန်	-12.0965
ါလီ	-12.0968
▁ဒေါင်	-12.0971
ဂျက်	-12.0971
▁မြှ	-12.0972
▁လူအုပ်	-12.0975
▁ဥဿ	-12.0976
▁ဖုတ်	-12.0977
▁ရေဆေး	-12.0984
ဇောင်း	-12.0988
▁ဖြောင့်	-12.0991
▁အကဲ	-12.0991
▁ကာမ	-12.0991
ုန့်	-12.0992
▁comp	-12.0994
ခမ်း	-12.1001
Hat	-12.1003
▁၈၆	-12.1007
▁ဆေးပေး	-12.1008
▁ကျွဲကော	-12.1015
▁ဖြိုခွ	-12.1016
▁အိမ်ပြောင်း	-12.1022
▁အငွေ့	-12.1024
▁ပြည်တည်	-12.1024
▁ဝတ်ပြု	-12.1029
▁ကော်ဇော	-12.1034
မြင့်မြင့်	-12.1041
▁ne	-12.1045
သင်္ဂ	-12.1047
▁လှိုဏ်	-12.105
ရေသွန်း	-12.105
▁ဇေယျ	-12.1054
▁တထောင်	-12.1054
▁အားစိုက်	-12.1059
က်ငှက်	-12.1076
ဟိ	-12.1077
ယွမ်း	-12.1079
▁ဖု	-12.108
ွန်ပြည်	-12.1085
▁လောင်းထည	-12.1091
ခေါ	-12.1094
▁ချာရ	-12.1098
nn	-12.11
▁Dis	-12.1103
▁Pla	-12.1117
▁ကညာ	-12.1122
▁Centr	-12.1122
လ္လာ	-12.1133
▁နှစ်ဖက်	-12.1133
▁၆၆	-12.1136
▁မြန်မာနိုင်ငံ	-12.1143
▁အင်အားကြီး	-12.1149
ဒီး	-12.1149
▁စရံ	-12.1152
▁လက်သီး	-12.1156
▁အားတက်	-12.1159
ူးတော်	-12.116
ျန်အန်	-12.1163
▁ချိုင်း	-12.1165
oo	-12.1166
၄၄	-12.1167
▁မြင်သာ	-12.1177
▁ဟွန်း	-12.1177
ုဒ်	-12.1185
တိဿ	-12.119
▁လူသုံး	-12.119
ဥယ	-12.1193
▁ဆာရာဝ	-12.1214
▁သားစား	-12.1214
ဂျစ်	-12.1218
▁စုပ်	-12.122
ya	-12.1221
ရဏ	-12.1223
▁သူစိမ်း	-12.1226
ဟာယ	-12.1226
၉၄	-12.1227
▁ပုံတူ	-12.1231
▁ကိုယ်ရေး	-12.1236
Cha	-12.124
▁အစီ	-12.1243
▁မသိ	-12.125
ကလာ	-12.1252
ဘီစီ	-12.1255
နတ်တ	-12.1258
ဖေး	-12.1265
မရ	-12.1269
▁မွဲ	-12.127
▁လင်ကွန်	-12.1272
▁ပါးပါး	-12.1284
▁တစ်ပြိုင်	-12.1284
ဒပ်	-12.1296
▁စကြာ	-12.13
ကျိ	-12.1302
▁ဘုတ်	-12.1304
▁ဩစတြ	-12.1309
မပျက်	-12.1312
ထွေ	-12.1312
ကျည်	-12.1313
ောသ	-12.1314
းဟွာ	-12.1319
▁နီလာ	-12.132
▁ပြန်ကြား	-12.1321
၂၄	-12.1325
▁အိမ်သူ	-12.1329
▁ငါးဆယ်	-12.1337
▁၄၈	-12.1338
▁ကျဲ	-12.1339
▁ကာယ	-12.1343
ဖြစ်စေ	-12.136
ိန	-12.1366
▁Bang	-12.1382
▁ရာဇာ	-12.1387
▁ယမ်း	-12.1397
▁အဝတ်လဲ	-12.1403
▁အိုက်	-12.1411
▁ပတ်လမ်း	-12.1417
▁ထီးနန်းစို	-12.1428
ဇစ်	-12.143
▁စာတော်	-12.1433
ွိုင်	-12.1444
▁အဝ	-12.1449
ဇာတ်ရုံ	-12.1457
▁တောင်ပိုင်း	-12.1457
▁အထုတ်	-12.146
တိုက်အ	-12.1469
▁ဖူးစာ	-12.1469
▁ရေပြင်	-12.1472
အဖျား	-12.1473
▁၉၄	-12.1476
▁တောင်သူ	-12.1482
▁အိုင်အ	-12.1486
▁တူရာ	-12.149
son	-12.149
▁အိမ်ခန်း	-12.1499
▁အကြွေးဝယ်က	-12.1505
၂၀၀	-12.1506
▁တွဲလဲ	-12.1528
ြုံ	-12.1537
▁စစ်ဗိုလ်	-12.154
▁Than	-12.1543
အော	-12.155
းစံ	-12.1561
▁ကတိမ	-12.1563
▁စာဆို	-12.158
ip	-12.1589
▁တဲ	-12.16
စတား	-12.1607
ကုတ်	-12.1608
င်နန်	-12.161
▁ရဟ	-12.1612
လက်စ	-12.1619
ွန်ဂို	-12.1629
▁အက်တလ	-12.163
▁မှော်	-12.163
▁de	-12.1635
▁အလုပ်ဝင်	-12.1643
to	-12.1655
▁ကုန်းမြ	-12.1657
ရူပ	-12.1657
▁သွားတိုက်	-12.1665
▁ပဲပင်	-12.1678
ဒန်	-12.1679
▁၉၀	-12.1683
aba	-12.1697
▁ယောဂ	-12.1698
▁လုပ်ရည်	-12.1708
tra	-12.1725
ောင်ကန်	-12.1729
▁ကြွား	-12.1738
▁အိမ်ထောင်ချ	-12.1746
ကြီးကြပ်	-12.175
ပွင့်	-12.1766
ီမင်	-12.1776
▁com	-12.1782
▁ကြွေး	-12.1783
ပိုးမွှား	-12.1784
▁သွက်သွက်	-12.1795
▁စိတ်မပ	-12.1806
▁အနာဂ	-12.1808
်လစ်	-12.1817
▁ကြော	-12.1819
▁ငြိ	-12.1828
တ်စ	-12.1844
မချ	-12.1847
▁ခုနက	-12.1851
▁Con	-12.1854
မုန်း	-12.186
po	-12.1878
▁စိုက်ထ	-12.1878
▁မြို့သူ	-12.1887
▁သော့ခ	-12.1897
▁ခိုင်ခ	-12.1905
▁ဘကြီး	-12.1908
▁သွေးစ	-12.1908
ုံ့ပ	-12.1916
ဆတ်	-12.1924
▁ခတ်	-12.1925
ီဒီယ	-12.1927
▁၁၉၂၉	-12.193
arl	-12.1937
းနစ်	-12.1952
စူးရှ	-12.1977
▁တစ်ဖြည်းဖြည်း	-12.1978
ပြေးလမ်း	-12.198
ရားသား	-12.1985
င်အေ	-12.1993
းရား	-12.1996
▁ကာလာ	-12.2
▁ပေါ်ဦး	-12.2009
ates	-12.2036
▁ဟပ်	-12.2039
▁နေကာ	-12.2056
▁ကင်းလွတ်ခွင	-12.2059
▁တစ်သက်	-12.206
▁ထင်း	-12.2075
pa	-12.2079
ight	-12.2095
အေးအေး	-12.2104
အပြေ	-12.2111
▁လိုက်ပါ	-12.2121
ega	-12.2127
ace	-12.2134
လန့်	-12.2145
းရှိုင်း	-12.2159
▁တစ်ပါး	-12.2177
▁Pan	-12.2178
▁မော့တ	-12.2195
ူတင်း	-12.2198
▁ဝတ္တ	-12.2204
▁မည်း	-12.2208
▁သားသား	-12.2212
ာစတာ	-12.2219
ရှန်	-12.2228
▁နေပူ	-12.2236
▁နန်ကျ	-12.224
▁ကုန်းတွင်း	-12.2255
▁လီဆူ	-12.2258
▁ဖြူဖ	-12.228
tor	-12.2281
▁တင်းတင်း	-12.2304
ပေါင်စ	-12.2318
ရီယာ	-12.2334
▁Le	-12.2341
ြတ်တောက်	-12.2358
ာတ	-12.2366
ဘင်	-12.2367
ရှိရှိ	-12.2385
ရွတ်	-12.2394
▁ပန်းပွင	-12.2395
ရွှဲ	-12.2429
▁၂၂၁	-12.2436
စ်စ်	-12.2437
ink	-12.2452
ဏ်	-12.2465
▁ရှေ့မှ	-12.2466
onic	-12.2468
်တန်	-12.2476
cke	-12.2481
သုံးပုံ	-12.2505
ုယ	-12.253
▁ဘီအ	-12.2545
▁အသတ်	-12.2558
န်းဝင်း	-12.2565
▁လျှံ	-12.258
▁Lo	-12.2619
state	-12.2631
▁မျက်ကွ	-12.2639
▁၄၇	-12.2648
▁cre	-12.2665
▁တပ်မ	-12.268
▁တာဝန်မ	-12.2693
▁၁၃၄	-12.2695
ky	-12.2696
နှိုင်း	-12.2707
▁Tra	-12.2732
ဗီ	-12.2748
က်ဆီ	-12.2779
▁၅၀ဝ	-12.2792
ဂရ	-12.2827
ကျန	-12.2832
va	-12.284
▁အင်အားနည်း	-12.2851
ဒင်	-12.2876
၃၇	-12.2876
▁ရန်အောင်	-12.2893
▁လက်တ	-12.2904
system	-12.2908
▁Ma	-12.2941
ုက္က	-12.2945
အိမ်မဲ့	-12.2946
ောလိုဂျီ	-12.2946
▁အကျဉ်းချ	-12.2962
အတိုင်း	-12.2971
▁ခရီးမ	-12.2977
တရ	-12.2984
▁Sp	-12.2995
▁ချောက်	-12.3003
▁h	-12.3003
rge	-12.3007
▁Pal	-12.3016
▁ဇီ	-12.3029
▁စွဲက	-12.3033
င်းနီးယ	-12.3042
▁၄၀ဝ	-12.3045
▁India	-12.3094
▁၁၆၀	-12.3096
uk	-12.3102
ပင်ပန်း	-12.3103
▁ကျူ	-12.3109
ယ်လောင်	-12.3123
▁cha	-12.3126
▁မြစ်လ	-12.3128
▁မျော	-12.3133
▁ဟိုက်ဒရ	-12.3145
၈၈၅	-12.315
▁Al	-12.3162
▁အတ္တလ	-12.3166
▁အထွန်း	-12.317
hen	-12.3193
▁နေရင်း	-12.3197
▁အူကြောင်	-12.3205
စွပ်	-12.3214
vi	-12.3216
▁ချစ်စ	-12.3221
man	-12.3222
▁ဝေါ	-12.3244
လျော	-12.3253
om	-12.3259
လက်စား	-12.3274
ro	-12.3276
၈၁	-12.3278
ရတ်	-12.3281
▁An	-12.3281
းဝါး	-12.3319
▁ခွန်	-12.3321
▁ပျော်ပျော်	-12.3323
▁ရပ်တန်	-12.337
▁အတို	-12.3382
ူလာ	-12.3415
လှုပ်	-12.3417
ek	-12.3421
းခြေ	-12.3431
သက်မ	-12.3446
ရှည်ရှည်	-12.3446
▁လက်ခ	-12.3455
▁၆၁	-12.3456
ဂင်း	-12.3459
▁၂၀၃	-12.3465
ဖေ့	-12.3467
▁၉၉	-12.3479
▁ယွန်	-12.3485
▁၅၀၀၀၀	-12.3496
lic	-12.3499
▁၂၅၀၀	-12.3503
ချော်	-12.3518
Dy	-12.3527
▁ဝိဘ	-12.3532
▁ကျောက်ဆ	-12.3532
ဝံ့	-12.3535
ဝိ	-12.3537
▁မီးစ	-12.3547
ေထု	-12.3554
လှောင်	-12.3557
၀၄	-12.3558
မြူး	-12.3565
အိ	-12.3566
anc	-12.3567
▁မက်ဆ	-12.3572
▁မိုးတ	-12.3575
ူးဇီ	-12.3581
တောင်ခြေ	-12.3584
ော်လ	-12.3586
၀၀၀၀	-12.3597
▁မူဂ	-12.3602
တဲ	-12.3612
▁၃၅ဝ	-12.3629
ပတိ	-12.3637
တ်သေ	-12.364
န်စီ	-12.3644
ဒေလီ	-12.3648
အဆိုင်	-12.3656
စွန်	-12.3677
ma	-12.3679
၈ဝ	-12.3684
ns	-12.3687
အမ	-12.3687
ဒုက္ခ	-12.3687
နှုတ်	-12.3693
ဖေါ်	-12.3698
စောင်	-12.3706
ငလျင်	-12.3709
ဒူး	-12.371
င်္ဂ	-12.3714
▁ရွံ	-12.3715
ငါ	-12.3717
ာသန	-12.3718
ချယ်ရီ	-12.372
အစွန်း	-12.3721
သရေစာ	-12.3722
▁သာယာဝ	-12.3728
ဒိုင်	-12.373
ဘားမ	-12.3732
သီဟ	-12.3733
ိစ်	-12.3734
လှိုဏ်	-12.3734
ဒုံး	-12.3737
ဝှိုက်	-12.3739
ဇေယျ	-12.3742
နန္ဒာ	-12.3742
ဗီဇ	-12.3745
ဗန္ဓုလ	-12.3746
ဂျို	-12.3747
ပြည့်စုံ	-12.3747
ကယ်လီ	-12.3749
search	-12.3752
ဆင်ယင်	-12.3753
ပျော့ပျော	-12.3754
Se	-12.3758
ပ်သုပ်	-12.3758
ဆိုဖီ	-12.3758
ငြီး	-12.3759
ဧည့်	-12.3762
သိန်းဖေ	-12.3762
မြတ်နိုး	-12.3763
အာဟာရ	-12.3766
နှလုံး	-12.3766
ဓလေ့	-12.3767
လိမ္မာ	-12.3767
အားဖြင	-12.3767
ဖြောင့်	-12.3767
ပြင်းပြင်း	-12.3767
▁အတွင်းဝန်	-12.3767
လှုပ်ရှား	-12.377
လမ်းဆုံ	-12.377
ဘုန်းကြီး	-12.3771
ကြည်လင်	-12.3773
မိန်းမ	-12.3773
ခဲတံ	-12.3773
စာမေးပွဲ	-12.3774
နံရံ	-12.3775
ကော်ဖီ	-12.3775
ဖျောက်	-12.3776
လွှမ်းမိုး	-12.3778
၅၀၀	-12.3778
ဘွဲ့	-12.3778
ရင်ပြင်	-12.3778
အတင်း	-12.3778
ဖွင့်	-12.3779
▁ဗောက်	-12.378
သက္က	-12.3782
လျှော်	-12.3782
ဗိ	-12.3784
ဒေါ်လာ	-12.3784
တောက်ပ	-12.3785
ကိုးဆယ့်	-12.3788
စည်းကမ်း	-12.379
နွား	-12.3791
မြင်သာ	-12.3792
ခွေး	-12.3793
ဘိုင်	-12.3794
ကြေ	-12.3802
▁Gra	-12.3802
ဒေါသ	-12.3804
ဖီး	-12.3804
ချန်လ	-12.3805
▁Phi	-12.3807
▁Ste	-12.3807
သဘော	-12.3809
အနီ	-12.3811
ခုံရုံး	-12.3813
ward	-12.3814
▁ချုံ	-12.3815
▁ရေလှ	-12.3834
သို့သော်	-12.3838
ချုံ	-12.384
ကိုယ်ကျ	-12.3851
▁မတ်မ	-12.3853
အပူ	-12.3855
ခမ်းနား	-12.3856
ဇင်း	-12.3862
▁ရုပ်ရှင်မင်းသ	-12.3868
▁နေရောင်	-12.387
▁၈၉	-12.387
▁၅၅၀	-12.3881
လွန်း	-12.3883
ပြည်ထောင်	-12.3892
▁Mi	-12.3899
ran	-12.3899
အစည်းအ	-12.3913
▁ဗီယ	-12.3935
▁၈၂	-12.3936
yn	-12.3941
▁ပဒေသ	-12.3941
အသင့်	-12.3942
မှန်း	-12.3943
▁အယ်လ်အ	-12.3944
ico	-12.3947
▁ကွမ်	-12.3947
ြစ်	-12.395
စီရင်	-12.3952
▁Sh	-12.3957
တလ	-12.3963
▁ရွှ	-12.3971
▁ဓမ္	-12.3973
▁ချွ	-12.3987
▁ငလျင်	-12.3987
wit	-12.3992
▁၁၂၀၀	-12.3995
press	-12.3995
▁ခရီးစ	-12.3996
ာမည	-12.3999
ကီရီ	-12.4005
▁သက်တ	-12.4006
းခယ်	-12.4012
▁Di	-12.4013
က်အ	-12.4019
ာန	-12.4022
▁မြို	-12.4023
ခြည်	-12.4024
လက်မှု	-12.4029
dy	-12.4032
▁အသောက	-12.4034
ီးဂရ	-12.404
အန်	-12.404
▁ရေဘေး	-12.4041
သဟ	-12.4045
စရိ	-12.4046
▁ပည	-12.4052
ဂေါ	-12.4057
▁ဂါရ	-12.4057
ယ်တိုင်	-12.4062
app	-12.4067
▁တမီ	-12.407
▁နှစ်ရာ့	-12.4076
▁ကျက်သရေ	-12.4076
▁ခြေဖ	-12.4078
းစိန်	-12.408
ာပန	-12.4081
erri	-12.4083
က္ကူ	-12.4084
အခန်း	-12.4084
hol	-12.4086
ရစ်ချ်	-12.4092
နေပြည်	-12.4097
ဝင်စတန်	-12.4099
▁ငါးကြ	-12.41
▁ဇိမ်	-12.41
▁ဂျိန်	-12.4103
hou	-12.4103
int	-12.4104
▁Ur	-12.4105
▁ဝီလျံ	-12.4105
rgani	-12.4105
cience	-12.4105
ူနီစီပ	-12.4105
▁အနည်	-12.4106
စ္ဆ	-12.4106
ttle	-12.4106
pper	-12.4106
နီတေးရီး	-12.4106
▁Atom	-12.4106
▁trans	-12.4106
▁နှမ	-12.4106
▁သီဟသန	-12.4106
echnolog	-12.4106
စပါယ်ရှယ်	-12.4106
ရိဓမ္မာသောက	-12.4106
▁Anti	-12.4106
▁David	-12.4106
▁Document	-12.4106
▁Neptun	-12.4106
▁feature	-12.4106
▁register	-12.4106
▁symbol	-12.4106
▁ကိုယ်နေဟန်	-12.4106
▁ကောင်စစ်ဝန်	-12.4106
▁ကြက်တွန်	-12.4106
▁ကွန်ဖြူးရှပ်	-12.4106
▁ဆယ်ကျော်သက်	-12.4106
▁တစ်ရာနှစ်ဆယ်	-12.4106
▁ထွန်ထယ်	-12.4106
▁ဒုတ္ထာ	-12.4106
▁ပရိနိဗ္ဗာန်စံ	-12.4106
▁ပိုးဖလံ	-12.4106
▁ဖန်းဂပ်မှို	-12.4106
▁ဗဲလဂျီယ	-12.4106
▁ဘဲငန်းသား	-12.4106
▁မစွမ်းမသန်	-12.4106
▁မဟာဗျူဟာ	-12.4106
▁မိုးချုန်း	-12.4106
▁မိုးစွေ	-12.4106
▁မောင်မျိုးမင်း	-12.4106
▁မ္လယ်	-12.4106
▁မြင့်မိုရ်	-12.4106
▁ယထာဘူတ	-12.4106
▁ယူနိုကယ်	-12.4106
▁လိုက်လျောညီထွေ	-12.4106
▁သင်္ဂါယနာ	-12.4106
▁သေနာပတိ	-12.4106
▁သွေးအားနည်း	-12.4106
▁ဟိန္ဒူစတန်	-12.4106
▁အနာတမီ	-12.4106
▁ဥတ္တရ	-12.4106
▁Region	-12.4106
▁down	-12.4106
▁ကင်ပွန်း	-12.4106
▁ခနိဇ	-12.4106
▁စီမံခန့်ခွဲ	-12.4106
▁ဆာလဖျူရစ်	-12.4106
▁ညှိုးနွမ်း	-12.4106
▁ပန်းဆိုးတန်း	-12.4106
▁ရောဂါဘယ	-12.4106
▁အယူသည်း	-12.4106
▁အလဲအလှယ်	-12.4106
ဟင်နရီ	-12.4106
▁ဂေါ်ရခါး	-12.4106
▁လီနင်	-12.4106
▁အဂ္ဂိရတ်	-12.4106
▁အရိုအသေ	-12.4106
roca	-12.4106
▁ခန်းဆောင်နီ	-12.4106
▁ဂျိုဆော	-12.4106
▁ဇောက်ချ	-12.4106
▁ဒါယကာ	-12.4106
▁ရှော့ပင်းမော	-12.4106
▁အများပြည်သူ	-12.4106
▁သြစတ	-12.4106
▁အဝေဖန်	-12.4106
ampong	-12.4106
▁လဟာပြင်	-12.4106
oreign	-12.4106
▁Thamma	-12.4106
▁ကဖိန်း	-12.4106
▁တယူသန်	-12.4106
▁ဓမ္မဓိဋ္ဌာန်ကျ	-12.4106
▁ဒေးကတ်	-12.4106
▁အစ်စမ	-12.4106
▁အသေးအမွှား	-12.4106
▁process	-12.4106
ိစ္ဆာ	-12.4106
▁Photo	-12.4106
▁ကူးလူးဆက်ဆံ	-12.4106
▁တရုတ်တည်သီး	-12.4106
▁ဦးကိုကို	-12.4106
▁phy	-12.4106
▁သုခုမ	-12.4106
raig	-12.4106
▁ခံတွင်းမြိန်	-12.4106
▁မလှုပ်မ	-12.4106
ford	-12.4106
▁ထွေပြား	-12.4106
▁ဗိုးဝါးငှက်	-12.4106
▁Marti	-12.4106
▁ဖူတုန်း	-12.4106
▁ဝူဟန်	-12.4106
▁back	-12.4106
▁ယူနီယံ	-12.4106
▁web	-12.4106
▁လောင်ဂျီကျု	-12.4106
ောရဝိသ	-12.4106
▁မွဲပြာ	-12.4106
▁award	-12.4106
▁နှုတ်မြိန်	-12.4106
▁အဇီး	-12.4106
▁အသဲ	-12.4106
▁ပျံ့လွင့်	-12.4106
▁Programm	-12.4106
▁red	-12.4106
▁မုတ်သု	-12.4106
count	-12.4106
ခြိမ်း	-12.4106
▁Geo	-12.4106
▁ညောင်ရမ်း	-12.4106
▁တံခွန်စိုက်	-12.4106
▁ဒူဝါ	-12.4106
▁မာရသွန်	-12.4106
ပစ္စယ	-12.4107
▁သရုပ်ဖေါ်	-12.4107
▁ပန်းရနံ	-12.4107
▁ဘီလျံ	-12.4107
▁အရွေးချယ်	-12.4107
▁ခရက်တစ်	-12.4107
ipp	-12.4107
ပ္ပါယ်	-12.4107
▁Marine	-12.4107
alay	-12.4107
▁မသိချင်	-12.4107
▁ကြံ့ကြံ့ခိုင်	-12.4107
udy	-12.4107
▁မော်ကွန်း	-12.4107
သင်္ချ	-12.4107
▁ဝါးမျို	-12.4107
▁ကြွေးကြော်	-12.4107
tock	-12.4107
clo	-12.4107
▁စပါဂတ	-12.4107
▁နုပျို	-12.4107
▁ဂန္ဓမာ	-12.4107
▁မင်ချော	-12.4107
▁Nak	-12.4107
▁နိပွန်	-12.4107
▁ပြာလဲ့	-12.4107
▁ပစ်စလ	-12.4107
▁အော်ဟစ်	-12.4107
socia	-12.4107
chit	-12.4107
▁အကြွင်း	-12.4107
▁Tele	-12.4107
▁ဂျွမ်းဘား	-12.4107
▁ရုံးသုံးဘာသာ	-12.4107
▁မောင်ချစ်	-12.4107
▁ကိုယ်ဝန်ဖျက်	-12.4108
▁အလွမ်း	-12.4108
▁ပလုတ်	-12.4108
space	-12.4108
stro	-12.4108
▁စည်သွပ်	-12.4108
▁ဇီဝဓာတု	-12.4108
▁Shi	-12.4108
▁ကြင်ဖော်	-12.4108
▁HD	-12.4108
▁မည်သို့ပင်	-12.4108
▁ဘိုးဘွား	-12.4108
▁လက်ကောက်ဝတ်	-12.4108
▁အော်ဂန်	-12.4108
RT	-12.4108
▁စစ်သင်တန်း	-12.4108
▁အင်းကော	-12.4108
▁အစာကြေ	-12.4108
▁မောင်သန့်	-12.4108
▁အနုကြမ်း	-12.4108
▁ကွက်တိ	-12.4108
▁အာတိတ်	-12.4108
နှိုက်ချွတ်	-12.4109
▁ကပ်စေး	-12.4109
▁ဘော်စတ	-12.4109
alia	-12.4109
▁ဂျင်ဆင်း	-12.4109
နာယက	-12.4109
အာကာ	-12.4109
▁ကူးလူး	-12.4109
rth	-12.4109
▁ကိုယ့်ဘာသာ	-12.4109
ိမ်မဲ	-12.4109
ator	-12.4109
▁ဘိလပ်ရ	-12.4109
▁ပျံလွှား	-12.411
rcu	-12.411
▁မသင့်မ	-12.411
▁Gui	-12.411
▁ကော်လံ	-12.411
▁ဂရင်းနစ်	-12.411
▁Bud	-12.411
▁Bai	-12.411
▁ဆာလောင်	-12.411
အလီအ	-12.411
dec	-12.411
▁ပန်ဒါ	-12.411
CC	-12.411
▁Gre	-12.411
ရူးသွပ်	-12.4111
tari	-12.4111
ထွေးလှ	-12.4111
▁ကန်စွန်း	-12.4111
▁ဘဂု	-12.4111
▁ဝဋ်	-12.4111
ope	-12.4111
▁ဝိုး	-12.4112
all	-12.4112
▁ထန်းရည်	-12.4112
က်ခရို	-12.4112
▁ခရိုင်ရုံးစိုက်	-12.4112
▁မိုးဖွဲ	-12.4112
ဗယ်ရီ	-12.4112
eli	-12.4112
eart	-12.4113
del	-12.4113
▁လမ်းခုလ	-12.4113
▁နို့မှုန	-12.4113
▁အော်င	-12.4113
ူမတြ	-12.4113
အစည်	-12.4114
▁gin	-12.4114
▁ဘီလ်	-12.4114
▁မျက်မှောင်	-12.4114
▁မန်ကျည်းသီး	-12.4114
▁ပစ္စ	-12.4114
▁Name	-12.4114
▁ပဲငါးပိ	-12.4115
▁ရိုင်းရိုင်း	-12.4115
▁မြဝတီ	-12.4115
sat	-12.4115
ဇလီ	-12.4115
▁ဟိမ	-12.4116
မဏ္ဍိုင်	-12.4116
▁ရေနွေးငွေ့	-12.4116
▁ဒူးရင်း	-12.4116
▁ပုံပန်းသဏ္	-12.4116
ဂဏ	-12.4117
▁အကုန်အကျ	-12.4117
▁Sum	-12.4117
▁မြင်းချေး	-12.4117
ုပ်ရည်	-12.4117
န်ဖြေ	-12.4117
▁အိုင်အာ	-12.4117
တ်လတ်	-12.4118
ရကျိုး	-12.4118
▁စစ်ဦးစီး	-12.4118
ြည်ဖု	-12.4118
▁ဂငယ်	-12.4118
▁အညံ့	-12.4118
▁ငြင်းခုံ	-12.4119
chan	-12.4119
yB	-12.4119
▁Ea	-12.4119
▁အစောင့်အ	-12.4119
▁အပ်ချည်	-12.4119
အုံ့	-12.4119
▁စနိုက်	-12.4119
▁၁၃၅၀	-12.4119
▁ကိုယ်ဟန်	-12.412
▁အဲယား	-12.412
▁ဖွက်	-12.412
▁အိမ်ကြက်	-12.412
TS	-12.412
▁လင်းတ	-12.412
▁လက်လှမ်းမ	-12.412
▁ပန္န	-12.4121
က္ကာ	-12.4121
▁ဂေါက်သီး	-12.4121
▁ထွန်းပ	-12.4121
ြိ	-12.4122
▁ပရိုဂ	-12.4122
▁ကွင်းဆင်း	-12.4122
ကာသီ	-12.4122
▁ညောင်ဦး	-12.4122
▁မီးခလု	-12.4123
▁ဂျိမ်းစ်	-12.4123
ဘယ်လ်ဂျ	-12.4123
ဖရက်	-12.4123
▁၇၅ဝ	-12.4124
ြစ်ဝှမ်းမြေနိမ့်	-12.4124
ကင်းဘရစ်	-12.4125
▁အကြွပ်	-12.4125
▁တီမာ	-12.4125
မနေရ	-12.4125
▁နတ်ရွာ	-12.4126
la	-12.4126
▁ကြည့်ရှု	-12.4127
▁သစ်သီးသစ်	-12.4127
▁၃၆၅	-12.4127
▁hard	-12.4127
▁ဒဏ်ကြေး	-12.4128
Serv	-12.4128
မြှော	-12.4129
▁သုက္က	-12.413
▁မြေအိုး	-12.413
ချောမော	-12.413
▁တန်းတူညီ	-12.4131
▁ပခု	-12.4131
▁Cl	-12.4131
▁ယူနီဖော	-12.4131
▁တသက်တာ	-12.4132
▁အသိပညာ	-12.4132
▁ကမ်းနား	-12.4132
စကိုး	-12.4132
arat	-12.4132
▁စတိတ်	-12.4132
ခြိမ့်	-12.4133
▁ငန်း	-12.4133
နီညို	-12.4133
▁ဝေလ	-12.4134
▁အညာသား	-12.4134
က်မော	-12.4134
▁မီးသင့်	-12.4134
▁ငှက်မွေး	-12.4135
▁အသားကင်	-12.4135
▁ဟန်ဂ	-12.4136
▁ကျက်သရေရှိ	-12.4137
▁မဟတ္တမဂန္	-12.4137
▁Mon	-12.4138
▁သွေးပူ	-12.4138
▁အခွင့်ကောင်း	-12.4138
▁ရှေ့ပြေး	-12.4138
နီယို	-12.4139
ကရု	-12.4139
▁ဟင်းခတ်	-12.4139
▁နားနေ	-12.4139
▁စည်းချက်	-12.414
▁နယ်ဝေး	-12.414
ကြပ်ကြပ်	-12.414
ရိန်း	-12.414
စိတ်တ	-12.4141
▁မိထွေး	-12.4141
▁ငန်	-12.4142
▁ထူထူ	-12.4142
့ဆည်	-12.4143
inst	-12.4143
▁ကျောက်သင်	-12.4143
▁လည်တိုင်	-12.4144
▁ထမင်းကြော်	-12.4144
ဝေါလ်	-12.4145
တီယာ	-12.4146
▁လေညင်း	-12.4146
sine	-12.4146
▁လေးသောင်း	-12.4148
ins	-12.4149
▁နီဂ	-12.4149
စိမ်းစို	-12.4149
▁အလှပြ	-12.4151
▁ဆံတော်	-12.4151
▁ပဉ္စင	-12.4152
▁ချွေးထွက်	-12.4152
▁ရုပ်ဆင်း	-12.4152
▁ဂျီး	-12.4154
▁ပင်စည်	-12.4154
တွမ်	-12.4154
ေးဝူး	-12.4154
▁စတူး	-12.4155
▁အိမ်ရှေ့မင်း	-12.4156
ခြိုးခြံ	-12.4156
▁ကပ်ပါး	-12.4157
▁အသေ	-12.4158
လင်ဒါ	-12.4158
▁ရော့စ်	-12.4158
▁ကျိန်	-12.4159
▁နန်းဆောင်	-12.4159
ခြေဟန်	-12.4161
▁ဖန်သား	-12.4161
လာဟ	-12.4163
▁ကျိန်း	-12.4163
▁တိုင်ဖ	-12.4164
▁ဆူခ	-12.4164
▁သစ်ဆင်း	-12.4164
အကြောင်း	-12.4165
▁မှန်လုံ	-12.4165
ော်လည်	-12.4168
▁ဥသ	-12.4168
အက်	-12.417
▁ဒေါ်ငွေ	-12.417
၀ဝ၀ဝ၀	-12.4171
▁အစက်အပ	-12.4171
ီကျု	-12.4171
▁သင်ရိုး	-12.4172
ပုရာရ	-12.4172
▁ကြက်မ	-12.4173
▁ခြေစုံ	-12.4174
yw	-12.4174
▁ဟယ်ရီ	-12.4175
တန်န	-12.4176
▁ဖုန်းရုံ	-12.4178
အောက်	-12.4181
ိုဘို	-12.4181
▁လက်ချိုး	-12.4181
းငယ်မ	-12.4181
▁သီးစားခ	-12.4182
▁အင်ဒီးယန်	-12.4182
ိတ်ဆုံ	-12.4183
▁ရွှေစည်း	-12.4183
▁ပါရမီ	-12.4183
▁နက်နက်	-12.4184
▁အငတ်	-12.4184
့နှ	-12.4187
▁ခွဲတမ်း	-12.4187
▁ဒန်း	-12.4189
▁စုံစမ်းရေး	-12.419
လေးတို	-12.419
သလစ်	-12.4191
နန	-12.4193
▁လေတိုက်ခတ်	-12.4195
▁အရည်က	-12.4195
▁atomic	-12.4195
▁၁၁၆	-12.4195
▁ဒယ်အိုး	-12.4196
▁ကြွေးမြီ	-12.4196
▁Colleg	-12.4196
▁protect	-12.4196
▁မွတ်ပိရာဇ	-12.4196
▁သံပရာ	-12.4196
▁Mac	-12.4196
▁၃၀ဝ	-12.4196
▁သွပ်	-12.4197
▁လှောင်ပြောင်	-12.4197
▁လီနတ္	-12.4198
▁အာသီး	-12.4198
▁စိတ်သဘောထား	-12.4199
▁Ne	-12.4199
▁ဒေဝရာ	-12.42
ချဉ်စပ်	-12.4201
▁fro	-12.4202
▁ဆယ်နှစ်	-12.4202
ပက်တိုက်	-12.4203
▁ဆုံးခန်း	-12.4203
▁အက်ကွဲ	-12.4203
▁မြစိမ်း	-12.4205
▁ဦးဗ	-12.4206
▁ကင်းကင်း	-12.4208
CH	-12.421
▁ရှစ်ဆယ်	-12.421
ဟမ်းမ	-12.421
agon	-12.4211
▁မြစ်ကူး	-12.4213
▁ကာဗွန်	-12.4213
▁ပေါက်စီ	-12.4214
▁စိတ်မပါ	-12.4216
▁ပွဲခ	-12.4216
▁မစ္စက်	-12.4216
▁အသင်	-12.4219
▁လက်ဟန်	-12.422
▁ကန္ဒ	-12.4223
▁၆ဝ	-12.4225
တဖြုတ်	-12.4226
▁ပစ်ထား	-12.4226
▁ကြွင်း	-12.4227
▁ငါးဥ	-12.4229
▁ဒုတိယတန်း	-12.4229
▁ဥက္ကာ	-12.4229
အဆီး	-12.423
▁ဆဲဆို	-12.4232
▁သံရည်	-12.4234
▁လိမ်မာ	-12.4234
▁သိတတ်	-12.4236
▁အီရစ်	-12.4238
▁မာစတာ	-12.4239
▁ဝမ်းစာ	-12.424
က်ထရီ	-12.424
ef	-12.4241
▁ချက်ကင်	-12.4241
▁အာမခံချက်	-12.4241
ရီရီ	-12.4242
▁၆၈	-12.4244
▁စာသင်ကြား	-12.4245
▁Lib	-12.4247
▁တာဝန်ပေး	-12.4249
▁မဒိုင်	-12.425
▁လောက်ဖျား	-12.4251
ဂျီအို	-12.4254
▁ရုပ်လုံး	-12.4255
▁အလျော့	-12.4255
ရက	-12.4256
ဆက်သွယ်	-12.4261
▁တံခါးမ	-12.4263
▁ပေါ့ပျက်	-12.4264
▁တိုက်စစ်	-12.4264
▁ဦးခင်မောင်	-12.4267
▁ဦးခွံ	-12.4271
ကွဲအပြား	-12.4274
▁ဗိုက်အောင	-12.4275
▁တခွန်း	-12.4278
စုတ်	-12.4278
အမွှာ	-12.428
▁စာကိုယ်	-12.4284
▁စွယ်တော်	-12.4284
▁Is	-12.4284
▁အီကော်န	-12.4286
သူမ	-12.4289
▁နှစ်သောင်း	-12.429
ာဗီ	-12.429
ယ်လိ	-12.4291
▁အကြင်နာ	-12.4292
ဖျန်း	-12.4293
▁ပင့်	-12.4295
ယ်လ်ဗ	-12.4298
▁စိန်ဖ	-12.4298
▁တနေ	-12.43
▁နွံ	-12.4301
▁ပင်ကိုယ်	-12.4308
▁လက်မှတ်စစ်	-12.4311
၅၃၅	-12.4316
▁မွတ်မ	-12.4318
▁အကြော်	-12.433
တစ်သက်တာ	-12.4336
ရှင်မုန	-12.4339
▁သုံးထောင်	-12.4339
▁သဲသ	-12.4346
ချိုင်း	-12.4349
▁အိမ်သစ်	-12.4351
▁ဩဂ	-12.4354
▁Steve	-12.4354
▁ပုံးရည်	-12.436
လေးစား	-12.436
▁MS	-12.4362
▁ဗွီ	-12.4367
▁သောက်သုံး	-12.4371
▁ရေစက်	-12.4372
ကြွပ်	-12.4376
ရာ့တစ်	-12.4377
▁သန္တာ	-12.4378
▁သရေ	-12.4387
▁ဗီတာ	-12.4394
▁ကခုန်	-12.4396
▁ပွဲစား	-12.4397
ဆူဆူ	-12.44
▁ဝူ	-12.44
▁အစဦး	-12.4401
▁သိမှတ်	-12.4418
hite	-12.4425
ကိုးထောင်	-12.443
ရှုံ	-12.4433
▁အတိုအ	-12.4444
ုံမက	-12.4444
▁ရက်လွန်	-12.4451
၁၅၄၂	-12.4454
▁အရှင်း	-12.4454
▁ဘတ်စ်	-12.4454
▁တိုက်ပုံ	-12.4455
▁တွန်းအား	-12.4456
▁လျှောက်မ	-12.4465
▁စုန်	-12.4466
aff	-12.4474
▁မဟူ	-12.4474
▁ဦးစ	-12.4475
▁ဗလာ	-12.4478
ဝရ	-12.4479
nger	-12.4481
နီးနား	-12.4483
ap	-12.4488
ီဇာ	-12.4498
▁စားကျက်	-12.4498
ဂနာ	-12.45
▁မြစ်မ	-12.4507
▁ကျောင်းထုတ်	-12.4511
စ်ကား	-12.4512
▁ချယ်ရီ	-12.4521
▁နန္ဒာ	-12.4524
တုံ့	-12.4531
▁Bio	-12.4531
augh	-12.4534
bar	-12.4543
ချမ်	-12.4544
က်စ်ဝက်	-12.4547
▁စစ်သူ	-12.4549
▁နောက်ပြန်	-12.4552
▁ကာစ	-12.4558
▁ဝေ့	-12.4559
▁ပန်းပ	-12.456
ည်တိုင်	-12.456
▁Rang	-12.4564
▁ကျောက်စဉ်	-12.4568
▁အစောင့်	-12.457
ပုလ	-12.4571
dia	-12.4577
▁အဲလ	-12.4577
mit	-12.458
၃၅၉	-12.4582
ob	-12.4582
▁၄၄၀	-12.4587
▁အငြိမ်	-12.459
▁မီးသတ်ပ	-12.4593
ေတိမ်	-12.4601
▁ပွေ	-12.4606
▁သရေစာ	-12.4611
▁မဆလ	-12.4613
tent	-12.4615
၃၇၆	-12.4622
၈၈၈	-12.4624
တ်တီ	-12.4626
han	-12.4627
ial	-12.4634
မွန်း	-12.4645
▁ငလျင်လှ	-12.4648
▁Sal	-12.4653
၁၉၃၄	-12.4654
▁Sia	-12.4665
▁dr	-12.4669
းဒီး	-12.4669
▁အကာ	-12.4681
▁သနပ်	-12.4685
▁၁၁၉	-12.4686
▁ချာချီ	-12.469
▁ငွေပေး	-12.469
▁ကောက်ပ	-12.469
ကွစ်	-12.4691
▁ဒုံ	-12.4699
por	-12.4702
nomic	-12.4705
DE	-12.4712
▁သတ်ပုံ	-12.472
ိမ်းဗ	-12.4723
▁တွန်	-12.4726
▁နတ်မင်း	-12.4737
▁လိုက်ကာ	-12.4738
▁စိတ်ဝင်	-12.4743
ki	-12.4752
▁ပြန်ထုတ်	-12.476
အိုးမဲ့	-12.4763
▁Sil	-12.4765
▁မြင်းချ	-12.4766
န်ထန်	-12.4769
▁လက်တွေ့ကျ	-12.477
▁ဘတ်စ်က	-12.4771
▁စားကောင်	-12.4774
▁လသာ	-12.4775
က်ဗီ	-12.4777
▁သြ	-12.4792
▁နားဝင်	-12.4794
lite	-12.4806
▁ကျိုက်ဖျ	-12.4808
▁မြို့တည်	-12.4811
▁ဆိုဖီ	-12.4812
ဖုတ်	-12.4815
fin	-12.4818
▁ရှာမ	-12.4819
▁Ho	-12.4819
▁Tu	-12.4822
▁se	-12.4829
▁စွယ်	-12.4839
လာသ	-12.4839
▁ဈ	-12.4841
းလွှာ	-12.4842
▁လုပ်ရိုး	-12.485
▁ညှစ်	-12.4857
အမ်အ	-12.4862
▁ရပ်ဖ	-12.4874
ys	-12.489
▁မရ	-12.49
▁ဓာတ်မတည	-12.4902
င်ဆူ	-12.4914
၁၀၀	-12.4925
မ္ပ	-12.4928
▁မာလာ	-12.4931
one	-12.494
▁၈၃	-12.4943
▁အလုပ်ထွက်	-12.4949
▁we	-12.4965
▁ဖီလ	-12.4967
▁Cit	-12.4968
လက်စတိုင်	-12.4972
▁ခေတ်မ	-12.4984
▁ရင်ပူ	-12.4985
ရှိန်	-12.4996
▁သင်္ကြန်ပွဲ	-12.5003
▁ဘာလီ	-12.5006
▁အဟုန်	-12.5013
အာရ	-12.5015
▁ဩစတြီးယ	-12.502
▁ဖွဲ	-12.5034
မုနိ	-12.5037
ရမန်	-12.5052
▁မျ	-12.5065
▁မျက်က	-12.507
င်ထရ	-12.5073
▁လမ်	-12.5086
▁မနား	-12.5087
ဖယား	-12.5116
▁သလင်း	-12.5128
ပတ	-12.5136
ီလီယမ်	-12.5138
▁အိ	-12.5145
ီးပြင်း	-12.5148
▁w	-12.5153
tac	-12.5159
▁ဗားမ	-12.5159
ထွန်းကား	-12.518
ou	-12.519
mon	-12.5199
▁po	-12.52
▁ပရမ	-12.5201
▁အလှပြင်ခန်း	-12.5201
▁အခြေအ	-12.5208
▁စန္ဒရာ	-12.5208
ကိုယ်တိုင်	-12.5216
▁မဟေ	-12.5228
nne	-12.5231
င်လှိုင်	-12.5241
ီယာ	-12.5261
ချီး	-12.5271
▁နေ့ည	-12.5276
▁အတ္တ	-12.5283
အပြောင်း	-12.5288
ကောင်းမှု	-12.5292
▁နက္ခတ	-12.5297
တ်သီး	-12.5297
▁၅၂	-12.5316
၁၆၉	-12.5317
ဂါဘ	-12.5321
▁အိတ်စ်	-12.5322
▁go	-12.5323
းနီးယ	-12.5329
▁ဒိန်ခ	-12.5347
▁ဖရီး	-12.535
၂၇	-12.535
▁စန္ဒာ	-12.5364
မန	-12.5365
▁၇၇	-12.5369
▁အဆွေ	-12.5414
▁စာမ	-12.5428
ြူး	-12.5435
▁n	-12.5437
ari	-12.5439
ိစ္စ	-12.544
ps	-12.5458
cosystem	-12.5467
်မ	-12.5468
▁လျင်	-12.5469
▁၈၈	-12.5482
▁စူရှ	-12.5502
ာဝရ	-12.5511
အစာ	-12.5525
န္တရ	-12.5534
▁မန်ဒ	-12.5544
ျောက်	-12.5552
▁ပလင်	-12.5567
ဘူတ	-12.5567
၆၆	-12.558
▁ဟန်ဘ	-12.5586
▁တဆက်	-12.5587
▁နှာတ	-12.559
ne	-12.559
operati	-12.5603
▁ရေမ	-12.5612
▁မည်သို့	-12.5618
ိမ်းမောင်	-12.5624
လျ	-12.5626
ီဘော	-12.563
SP	-12.5646
မြသန်း	-12.5648
▁ဒရ	-12.565
▁ခြေဆ	-12.5652
၂၅၀	-12.5654
▁ဆုတ်ခ	-12.5694
အမ်	-12.5696
▁ဖုံ	-12.5696
ck	-12.5697
၈၈၆	-12.5715
▁တသီး	-12.5737
တစ်ဗ	-12.5748
▁စွန့်ပ	-12.5749
▁ပျို	-12.5764
န်းပု	-12.5801
▁အခုန်	-12.5813
သန္တ	-12.5814
င်းကွန်း	-12.5822
၂၂၅	-12.5824
မွှာ	-12.5827
▁ကျောင်းစာ	-12.5833
ub	-12.5864
▁အင်းလျား	-12.5865
င်တီ	-12.5884
▁မျက်မ	-12.5911
ိုက်ခတ်	-12.5911
ds	-12.5912
ven	-12.5934
ld	-12.5934
တွား	-12.5935
ီးနား	-12.5946
တ်ချ	-12.5951
ိုး	-12.5987
ll	-12.5989
န်ချန်	-12.599
▁ငရုတ်	-12.6036
▁တဝ	-12.6038
▁ဟစ်	-12.6044
yp	-12.6044
ပ်စ်	-12.6051
bet	-12.6087
ans	-12.6097
▁is	-12.6102
ok	-12.6118
▁ပြည်တော်သ	-12.6137
ဇယ်	-12.6138
နားနား	-12.6145
rman	-12.6147
▁Ni	-12.6158
ဆယ်လ	-12.6167
သွားလမ်း	-12.6189
▁ထိုက်သင	-12.6192
စ်စကို	-12.6208
my	-12.6217
က်တန်	-12.626
ရေပြင်	-12.6301
ရှိုင်း	-12.6353
င်းစင်	-12.6374
က်ဆက်	-12.6386
les	-12.6395
ာချာ	-12.6398
မွတ်	-12.6401
air	-12.6419
▁ဖြည့်စွ	-12.6451
▁Sher	-12.6458
လွင့်	-12.6461
▁Ba	-12.6468
ောက်ထပ်	-12.6472
▁၅၄	-12.6473
ု့	-12.6474
▁အုပ်ချုပ်ရေး	-12.6492
နားလည်	-12.6494
▁လေးလေး	-12.6496
▁၄ဝဝ	-12.6498
လဇ	-12.6499
ိုင်ဒီ	-12.6508
▁သစ်ခွ	-12.6516
စက	-12.653
▁ငရုတ်ဆ	-12.6562
wi	-12.6569
ီပေါ	-12.6578
းဆက်	-12.6584
၄၃	-12.659
ဗားန	-12.6653
မျှော	-12.6654
▁ပါဆယ်ထု	-12.6668
မထွက်	-12.6676
▁အမွ	-12.669
ဗတ်က	-12.6696
igh	-12.6714
au	-12.6777
▁မျက်စိတ	-12.6792
ိဿ	-12.6803
und	-12.681
▁တစ်သ	-12.6815
စပ	-12.6821
▁ထူးထူး	-12.6844
ဥက္ကလာ	-12.6848
base	-12.6861
▁Bost	-12.687
လက်ရှည်	-12.6872
ts	-12.6893
ရဲရဲ	-12.6896
▁ဒစ်စန	-12.6909
▁ကုထ	-12.691
et	-12.6913
ational	-12.6931
ေးခုန်	-12.6951
ern	-12.697
eo	-12.6973
တူရာ	-12.6981
ဘယ်	-12.6983
▁ma	-12.7008
မန္တ	-12.7027
မုန့်	-12.7041
ီဒိုးန	-12.7085
တိုးပေး	-12.7086
ရှစ်	-12.7091
ess	-12.7105
▁မဟာရာ	-12.7136
▁လီမ	-12.7153
ဒဲလ်	-12.7212
do	-12.722
န်ဆန်	-12.7221
▁Pro	-12.7246
▁စစ်ဆေးရေး	-12.7257
နှပ်	-12.7306
tr	-12.7322
▁Br	-12.7333
အက်စ်အ	-12.7334
ရာ့တစ်ဆယ်	-12.7353
rit	-12.7354
ယူဆ	-12.7363
eth	-12.7363
ကြည့်မှန်	-12.7372
ူရ	-12.7374
းကျိုး	-12.7385
▁Ed	-12.7393
bo	-12.7394
ပေါ့ဆ	-12.7405
ဒိန်းမ	-12.7416
ဒြာ	-12.7417
ာမုနိ	-12.7428
ကမ်းပါး	-12.7439
အောက်ခံ	-12.7448
EN	-12.7452
▁အိုဗ	-12.7488
▁ကမ္ဗလ	-12.7505
ဂေး	-12.7536
▁၄၉	-12.7541
ut	-12.7567
▁သက်သေခံ	-12.7589
ion	-12.7594
▁ဒီပ	-12.7594
ရှစ်ရာ	-12.7595
ff	-12.7602
▁Hu	-12.7608
ကွ	-12.761
▁Dr	-12.7612
ဗော်လ	-12.7612
▁အကြွေးဝယ်	-12.7613
ေပီ	-12.7617
▁၁၂၂	-12.7628
▁ခြေကျင်	-12.7645
မြှင့်	-12.7656
▁၄၅၀	-12.7662
ဂျွန်	-12.7665
ောင်းထိုး	-12.7682
arry	-12.7692
ားဒ်	-12.7694
▁ပန်	-12.774
ွယ်	-12.7746
tis	-12.776
▁ဆဲဆ	-12.7764
ဟွာ	-12.777
တိမ်	-12.7771
့ခင်း	-12.7774
ict	-12.7805
▁စသည	-12.7805
▁အရှိန်အ	-12.781
▁အနီးတ	-12.7811
▁ဖောင်တ	-12.7824
oa	-12.7831
ိုင်းပညာ	-12.7835
▁Bi	-12.7842
မထ	-12.7844
ပန်းတ	-12.785
▁ဟောဟ	-12.7868
▁ကော်ရ	-12.7883
ော့စ	-12.7888
tin	-12.7889
ကမ္ပ	-12.7892
သူတော်	-12.7893
ကယ်လ	-12.7908
▁ဦးစိန်	-12.7914
လက်ချ	-12.7915
တ်စ်	-12.7928
ော်ရီ	-12.7936
ချိုင့်	-12.7938
da	-12.7942
▁Pra	-12.7942
န္နာ	-12.7958
မောင်းမ	-12.7963
တွန်း	-12.7964
▁ro	-12.7969
▁ဂျန	-12.8002
အက	-12.8003
၇၅၀၀	-12.8005
▁၁၃၈	-12.8009
မေ့	-12.8018
▁ဗဟိ	-12.8032
ဗွီ	-12.8102
ock	-12.8121
UMi	-12.8123
▁Par	-12.8134
ဂ္ဂ	-12.8134
ိတ	-12.8138
ဂွန်း	-12.8151
မ့်	-12.8164
ောင်တိုက်	-12.8166
▁၂၈၀	-12.8172
▁အကျော်	-12.8174
ပန်	-12.8188
▁မြက်ပ	-12.8191
tta	-12.8203
▁မိုးမိ	-12.8216
▁လက်ရ	-12.8219
rson	-12.8223
ရွှင်လန်း	-12.823
▁တည	-12.8255
▁La	-12.8266
က်စက်	-12.8266
▁ID	-12.828
▁ဒတ်	-12.8288
▁၁၆ဝဝ	-12.8298
ဖု	-12.8303
amb	-12.8307
iato	-12.8319
▁၁၀၂	-12.832
▁Ci	-12.8326
▁r	-12.8327
enti	-12.8328
erry	-12.8343
စိုပြည်	-12.8356
သမာ	-12.8357
uy	-12.8359
▁စက်မှုဇု	-12.836
တသ	-12.837
တ္တံ	-12.838
နော	-12.8401
ဝဲလ	-12.8403
ီနီ	-12.8409
▁LL	-12.8415
စ်ဗ	-12.8446
indi	-12.8453
▁မီးသတ်	-12.8464
las	-12.8474
ဓား	-12.8474
GE	-12.8483
▁Burm	-12.8487
ena	-12.8487
မ်းနာ	-12.8488
llen	-12.8507
ငြင်	-12.8512
စကာ	-12.8535
▁တနိုင်	-12.8543
▁လက်ခံပြေ	-12.8564
ဖြုတ်	-12.8568
hor	-12.8573
▁အသက်ရှည်	-12.8576
ade	-12.858
ေါက်	-12.8587
အာဏာ	-12.8596
▁ကိုလံဘ	-12.8598
▁ဒေါ်လှ	-12.8607
သန့်	-12.8609
ီးအိမ်	-12.8609
ဝဏ	-12.861
lag	-12.8615
▁၁၁ဝ	-12.8631
ဖရု	-12.8639
တစ်ခြား	-12.8648
တုံ	-12.8649
။	-12.8649
န္ဒ	-12.8687
▁ဘု	-12.8695
len	-12.8697
တော်မြတ်	-12.8701
ark	-12.8704
Steve	-12.8714
ဩဂ	-12.8716
MS	-12.872
မြိန်	-12.8724
▁ရွှေဘ	-12.8725
ပုံးရည်	-12.8727
ဗီတာ	-12.8729
Do	-12.873
ထင်းရှူး	-12.8732
ဂတ်စ်	-12.8733
ဖြောင့်	-12.8733
ဥက္က	-12.8735
နျူကလ	-12.8735
တင်းတင်း	-12.8739
ပျဉ်	-12.8744
နဲနဲ	-12.8745
Am	-12.8747
ရှောင်ဟုန်	-12.875
အသားညှပ်	-12.875
မှို	-12.8753
ပလ္လင်	-12.8754
ဥဿ	-12.8755
ဂုဏ်ထူး	-12.8755
ဘိုး	-12.8759
ဗိုလ်	-12.8759
နှိုက်	-12.8759
ဗုံး	-12.876
ရေသန့်	-12.876
ဒေါ်မန်	-12.876
ida	-12.8761
car	-12.8763
စေတီတော်	-12.8764
ဂြိုဟ်	-12.8764
ဆင်းတု	-12.8764
အညာ	-12.8764
ဖယောင်း	-12.8766
ဗြိတိ	-12.8766
ဒဂုံ	-12.8767
ရုရှ	-12.8767
သေးသေး	-12.8767
စွ	-12.8768
မှည့်	-12.8768
ဂရင်း	-12.8769
စေတနာ	-12.8769
သမုဒ္ဒရာ	-12.8769
မောင်ကျော်	-12.877
မတော်တဆ	-12.8772
ဘောင်းဘီ	-12.8772
လေ့ကျင့်	-12.8772
တစ်ခါ	-12.8772
ပေါင်မုန့်	-12.8773
လိမ္မော်	-12.8773
၁၈၆	-12.8773
ရာဇဝင်	-12.8774
ထောက်ပံ့	-12.8775
အက္ခရာ	-12.8775
စိုးရိမ်	-12.8775
ကမ်းရိုးတန်း	-12.8776
စွယ်စုံ	-12.8776
မြန်မြန်	-12.8776
တံတား	-12.8777
မျက်စိ	-12.8777
အစိုးရ	-12.8777
သဘာဝ	-12.8777
တက္ကသိုလ်	-12.8777
of	-12.8778
ခေါက်ဆွဲ	-12.8778
သန်းခေါင်	-12.8779
▁ထရ	-12.8779
ကျောက်တိုင်	-12.878
၈၀ဝ	-12.8781
စောစော	-12.8781
သမ္မတ	-12.8782
ချိုင်	-12.8782
ဆဲလ်	-12.8782
ကုန်းမြေ	-12.8783
ဗလီ	-12.8783
စီးနင်း	-12.8784
ဗီဇာ	-12.8785
အရှေ့	-12.8786
ဝမ်းနည်း	-12.8786
ဝမ်းသာ	-12.8786
ဌ	-12.8787
နာမည်	-12.8788
မိဘ	-12.879
ဟင်းချို	-12.879
နှုတ်ဆက်	-12.8791
▁ပိုးစ	-12.8793
အပြစ်	-12.8794
ပန်းချီ	-12.8794
အမည်	-12.8795
ဂီတ	-12.8796
ခုနှစ်	-12.8797
ကုသ	-12.88
တိုးတက်	-12.88
ခုနစ်	-12.8801
ချွေး	-12.8802
▁လှေနံ	-12.8805
ခရစ်	-12.8814
ကတုံး	-12.8818
အီကော်နို	-12.882
အရည်အ	-12.882
ဖြူစင်	-12.8822
▁အချမ်း	-12.8826
ဘူတာ	-12.8826
ဒေါ်	-12.8826
ကွမ်း	-12.8832
လမ်းသွား	-12.8833
▁အာမ	-12.8841
ပုံစံ	-12.8841
စွန့်	-12.8842
ထို့အ	-12.8844
ဝေဝေ	-12.885
▁Ti	-12.885
▁၇၀၀	-12.8852
မုခ	-12.8852
ဆော့	-12.8854
တာဝန်	-12.8856
▁ထရို	-12.8857
Bur	-12.8858
ဗလာ	-12.886
ထွန်	-12.8865
ဆုံးရှုံး	-12.8865
▁ရိုက်နှ	-12.8865
အဆိုး	-12.8866
စိမ့်	-12.8867
▁pla	-12.8872
ကြောက်	-12.8875
ီအင်	-12.8877
out	-12.8879
မူလ	-12.8879
ယ်တာ	-12.8879
ဆမ်း	-12.8884
ပိတ်ဆို့	-12.8884
တစ်နေ့	-12.8885
လ်ဒ	-12.8885
စိတ်ထား	-12.889
ome	-12.8893
အယ်	-12.8893
ကြုံစ	-12.8894
နိုက်	-12.8897
အမြင့်	-12.8903
ညံ့	-12.8903
လက်ဇ	-12.8907
တ္တရာ	-12.8908
ံသ	-12.8915
ဓဇ	-12.8917
သုန်မှုန်	-12.8918
▁၄၂၀	-12.8918
▁ဝပ်ကင်းပီးပယ်	-12.892
oya	-12.8924
ာဒ	-12.8925
▁မင်းကွ	-12.8928
ာ့ခ်	-12.8934
လက်နက်	-12.8934
နစ်နာ	-12.8941
▁ဦးလော	-12.8944
ီဗာ	-12.8948
▁၅၉	-12.8949
တမော	-12.8951
ဝန်ပို	-12.8956
sca	-12.8958
▁စုတ်ပြ	-12.8958
eral	-12.8964
▁မောင်ကြ	-12.8968
ဆောင်ရွက်	-12.8971
ွေးဖွ	-12.8972
▁ထထ	-12.8974
▁အစွန်းရ	-12.8976
ဟောင်	-12.8979
်ဒယ်	-12.899
ုတ္တမ	-12.8992
ago	-12.8996
▁လွယ်လွယ်	-12.8999
စတင်	-12.9
▁ရွှေချ	-12.9004
ဗေ	-12.9005
ဝူ	-12.9006
ii	-12.901
Net	-12.9011
အရ	-12.9013
ho	-12.9015
လုံခြုံ	-12.902
သွန်	-12.902
▁ခြိုးခြ	-12.9029
uo	-12.9035
ါးပါး	-12.9036
▁ကြိုးကြာ	-12.9044
နောက်ပြီး	-12.905
▁ရိုမ	-12.9051
vit	-12.9052
စာရွက်	-12.9052
ယု	-12.9056
အရက်	-12.9056
▁နွယ်တ	-12.9057
ကျေး	-12.9057
▁အိမ်ရှေ့	-12.906
▁So	-12.9063
မငြိမ်	-12.9064
▁Comp	-12.9064
▁အက်ဒ	-12.9065
မ္မတ	-12.9065
▁ရာဂ	-12.9065
▁ပက်လက်	-12.9067
ဒန္တ	-12.9075
ingd	-12.9075
ုံလုံ	-12.9079
မသေ	-12.9079
အဖွဲ	-12.9083
ရူန	-12.9083
Can	-12.9084
ထွေထွေ	-12.9085
ိန္ဒိယ	-12.9085
▁ဝီကီပီ	-12.9086
ွှမ်း	-12.9087
လမ်းခွ	-12.9089
ကြွေးဝယ်ကဒ်	-12.9089
လှုံ	-12.909
Tim	-12.9092
ly	-12.9093
▁လိုဏ်	-12.9093
ူရှူ	-12.9094
▁ပလ္လ	-12.9094
Mala	-12.9094
ဒေါ်လ	-12.9095
ငြိမ်မ	-12.9096
သရေစ	-12.9099
ဘကြီး	-12.9099
ဉ္စ	-12.91
ဂယ်လီလီ	-12.9101
▁ကဝိ	-12.9101
▁log	-12.9101
ည်ဆံ	-12.9102
ျစ်လျ	-12.9102
ord	-12.9103
▁ညှဉ်းပ	-12.9104
▁သိပ္ပ	-12.9104
▁အက်ဖ	-12.9104
TA	-12.9104
▁ဆန်ဖရန်	-12.9104
rpor	-12.9105
▁စည်သွ	-12.9105
ဝိဇ	-12.9105
မင်စတာ	-12.9105
▁ဘောလ	-12.9105
ture	-12.9105
▁ကြံ့ကြံ့	-12.9105
ဒွိ	-12.9105
obs	-12.9106
▁cod	-12.9106
▁Program	-12.9106
ါယ်	-12.9106
hemist	-12.9106
▁Eukary	-12.9106
PD	-12.9106
ကျယ်ပြန့်	-12.9106
Sunnah	-12.9106
သင်္သကရိ	-12.9106
မ္ဘ	-12.9106
အိန်ဂျ	-12.9106
▁ဒေစ္စ	-12.9106
ိုဝ်	-12.9106
▁အမြဲစိမ်းသစ်	-12.9106
ဂုရု	-12.9106
▁electron	-12.9106
▁micro	-12.9106
▁လောကဓံ	-12.9106
risti	-12.9106
အာဆာမိုင်န	-12.9106
▁Data	-12.9106
▁Hindu	-12.9106
▁Singap	-12.9106
▁analy	-12.9106
▁ချွေးတပ်ဆွဲ	-12.9106
▁စစ်မှုမထမ်းမနေရ	-12.9106
▁တောင်ဝှေး	-12.9106
▁ဓာတုဒြပ်	-12.9106
▁ဘုန်းမီးနေလ	-12.9106
▁မိုးနည်းရပ်ဝန်း	-12.9106
▁ဝန်စည်စလယ်	-12.9106
▁အိန္ဒနံ	-12.9106
apad	-12.9106
cours	-12.9106
ietnam	-12.9106
indow	-12.9106
lgorithm	-12.9106
load	-12.9106
ograph	-12.9106
oyu	-12.9106
structure	-12.9106
ခန္ထီး	-12.9106
ချွံ	-12.9106
ငေါ့	-12.9106
စိုင်းစိုင်း	-12.9106
ပကိဏ္ဏက	-12.9106
ဖရိမ်	-12.9106
ဦးဘဘေ	-12.9106
ီဘရားသား	-12.9106
ူကလီးယ	-12.9106
▁Avenue	-12.9106
▁BillMelinda	-12.9106
▁Ency	-12.9106
▁Graphite	-12.9106
▁Instru	-12.9106
▁Margarita	-12.9106
▁Melinda	-12.9106
▁Molecul	-12.9106
▁Mongol	-12.9106
▁PadangMa	-12.9106
▁People	-12.9106
▁Product	-12.9106
▁Protestant	-12.9106
▁Scot	-12.9106
▁Street	-12.9106
▁Sukho	-12.9106
▁free	-12.9106
▁pancake	-12.9106
▁product	-12.9106
▁speech	-12.9106
▁techni	-12.9106
▁ကမ္မ	-12.9106
▁ခြေကုန်လက်ပန်း	-12.9106
▁ဂုဏ္ဏာသာရ	-12.9106
▁ဂျမ္မ	-12.9106
▁ဂျဟိုး	-12.9106
▁ငြိမ်ငြိမ်	-12.9106
▁စထရော်	-12.9106
▁စားမြုံ့ပြန်	-12.9106
▁စိတ်ထိခိုက်	-12.9106
▁ဆာဝီလျံ	-12.9106
▁ဆေးရေးပန်းချီ	-12.9106
▁ဇီဝကမ္မ	-12.9106
▁တစ်ထောင့်ရှစ်ရာ	-12.9106
▁ဓတရဋ္ဌ	-12.9106
▁နှံပြီစုတ်ငှက်	-12.9106
▁ပဋိသန္ဓေ	-12.9106
▁ပါဇီဗားလစကီး	-12.9106
▁ပ္လ	-12.9106
▁ဖာထေး	-12.9106
▁ဗိုလ်တထောင်	-12.9106
▁မည်သို့ပင်ဆိုစေ	-12.9106
▁မန်ချက်စတာ	-12.9106
▁လုပ်သားပြည်သူ	-12.9106
▁ဝင်းဒိုး	-12.9106
▁ဝင်္က	-12.9106
▁သင့်တင့်	-12.9106
▁သဗ္ဗညု	-12.9106
▁သံဓိဌာန်ချ	-12.9106
▁သြစတြေးလျ	-12.9106
▁ဟင်းနုနွယ်	-12.9106
▁ဟီရိဩတ္တပ္	-12.9106
▁အဲလက်စ်ဂေါ့စ်	-12.9106
▁ဧတ္ထ	-12.9106
ဓာန	-12.9106
ရှောရှ	-12.9106
▁Soft	-12.9106
▁develop	-12.9106
▁ဂျနာတာ	-12.9106
▁နိုဘယ်	-12.9106
▁ဗဟိဒ္ဓ	-12.9106
▁သိန္ဒု	-12.9106
ဂုပတ္တ	-12.9106
ဒါဂါး	-12.9106
သုဓမ္မာ	-12.9106
▁Save	-12.9106
▁ကတိကဝတ်	-12.9106
▁ကရုဏာ	-12.9106
▁ကို့ယို့ကား	-12.9106
▁ကောသမိန်	-12.9106
▁ကြိုးသိုင်း	-12.9106
▁ကွန်ဖူးဇီး	-12.9106
▁ခေါက်ရိုးကျိုး	-12.9106
▁စီနီယာ	-12.9106
▁ဆားငန်	-12.9106
▁ဒုန်းစ	-12.9106
▁ဝါဒဖြန့်	-12.9106
▁ဝေါ့လ်	-12.9106
▁သုဇိတာ	-12.9106
▁သောက္ကတဲ	-12.9106
▁အကျိုးခံစားခွင	-12.9106
▁အဓွန့်ရှည်	-12.9106
anguage	-12.9106
phosphate	-12.9106
ssein	-12.9106
င်းဝန်မင်းကြီး	-12.9106
ပစ္ဆိ	-12.9106
ဗျစ်တောက်	-12.9106
ယော့ရှိုင်ယာ	-12.9106
ရှီဟွမ်	-12.9106
▁...	-12.9106
▁alrah	-12.9106
▁ခလီဖာအ	-12.9106
▁သို့မှသာ	-12.9106
▁အလူမီနီယ	-12.9106
ဖားဖား	-12.9106
▁Resource	-12.9106
▁Sultan	-12.9106
▁language	-12.9106
▁van	-12.9106
▁ကျောက်စိုင်	-12.9106
▁ခြေကုပ်	-12.9106
▁နာတာရှည်	-12.9106
▁ပျာယာ	-12.9106
karyot	-12.9106
▁တင်ကျီး	-12.9106
▁ထိတ်ကနဲ	-12.9106
▁ထျန်ထန်	-12.9106
▁ပင်ဂွင်း	-12.9106
▁ရိုင်ဖယ်	-12.9106
ဒိဌ	-12.9106
▁ပနံတင်	-12.9106
▁သင်္သကရို	-12.9106
irkl	-12.9106
mmoniac	-12.9106
ဇင်ယော်	-12.9106
ိုက်ဘေးရီးယ	-12.9106
▁ဖြစ်နိုင်ခြေ	-12.9106
▁သွင်ပြင်လက္ခဏာ	-12.9106
▁အာခေ	-12.9106
နိက္ခမ	-12.9106
▁ကာယကံ	-12.9106
ုရားရုပ်ပွားတော်	-12.9106
▁တစ်ထောင့်နှစ်	-12.9106
▁နန်ဖူ	-12.9106
▁ပိရိုတ	-12.9106
▁ပုစဉ်း	-12.9106
bacteria	-12.9106
ccin	-12.9106
▁Christ	-12.9106
▁heart	-12.9106
▁ညည်းတွား	-12.9106
▁ဒိန်ချဉ်	-12.9106
▁လက်ပ်တော့	-12.9106
Minor	-12.9106
akorn	-12.9106
▁Lead	-12.9106
▁minicomputer	-12.9106
▁ဂျင်နရ	-12.9106
▁ပေါလ်အယ်လ	-12.9106
▁ဘူဖေး	-12.9106
▁အုတ်တံတိုင်း	-12.9106
▁အကျော	-12.9106
▁အယ်လဂျေ	-12.9106
ပရက်စ်	-12.9106
▁Human	-12.9106
▁ရိုမန်က	-12.9106
vora	-12.9106
▁Maha	-12.9106
▁ဇမ်ဘီယာ	-12.9106
▁ဦးဒတ်	-12.9106
▁Buff	-12.9106
▁Little	-12.9106
ence	-12.9106
ogat	-12.9106
rle	-12.9106
▁စက္ကရီ	-12.9106
enetic	-12.9106
ချင်စဖွယ်	-12.9106
abino	-12.9106
▁အမြော	-12.9106
န်လှော	-12.9106
▁တွန်မြည်	-12.9106
apan	-12.9106
gne	-12.9106
▁Paul	-12.9106
uban	-12.9106
▁တပိုဝ်	-12.9106
▁မြဝတီမင်းကြီး	-12.9106
ာရတ္ထ	-12.9106
▁အိုင်ဆိုတု	-12.9106
▁ဆာဂျေ	-12.9106
▁မုဒိ	-12.9106
cul	-12.9106
ိန္ဒြာ	-12.9106
▁East	-12.9106
်အမြင်	-12.9106
borat	-12.9106
ncl	-12.9106
shire	-12.9107
▁Imp	-12.9107
▁စတိတ်ရှိုး	-12.9107
▁စန္ဒဂုတ္တ	-12.9107
▁ညဥ့်နက်	-12.9107
▁ဂယ်လ	-12.9107
စပီကာ	-12.9107
Guardia	-12.9107
assi	-12.9107
ကုဋ	-12.9107
▁ပရိုတက်စတ	-12.9107
ဖရန်စစ်	-12.9107
issi	-12.9107
▁အနုမြူ	-12.9107
▁ကန့်လန့်	-12.9107
▁ရုပ်ပွားတော်	-12.9107
fo	-12.9107
Alt	-12.9107
ronti	-12.9107
▁ဩဇာအာဏာ	-12.9107
▁ကြွင်းကျန်	-12.9107
ဖြိုး	-12.9107
ိုမီယို	-12.9107
▁Micro	-12.9107
▁Sheng	-12.9107
▁ခေါမ	-12.9107
▁တစ်ထောင့်တစ်ဆယ်	-12.9107
သက္ကာယ	-12.9107
ောက်ကမ	-12.9107
န်းဂဲလ	-12.9107
▁Proto	-12.9107
lock	-12.9107
▁ကော်ပြန့်	-12.9107
ကေအီ	-12.9107
▁စိတ်ခံစား	-12.9107
▁ဂျွန်စမစ်	-12.9107
▁ယန့်ကျင်	-12.9107
▁ခုတ်ထွင်	-12.9107
န်ချူ	-12.9107
ိုနီးရှ	-12.9107
▁ပိတောက်	-12.9107
▁Trio	-12.9107
▁စည်ပင်သာယာ	-12.9107
▁အော်စကာ	-12.9107
ာသွက်	-12.9107
Memor	-12.9107
မ်ရှီ	-12.9107
Mail	-12.9107
စကွဲယား	-12.9107
alga	-12.9107
mail	-12.9107
ဂါးဒ	-12.9107
ိုးခြံ	-12.9107
▁ပုဂ္ဂလဓိဋ္ဌာန်	-12.9107
irs	-12.9107
▁ချဉ်ပေါင်	-12.9107
▁စေ့စေ့	-12.9107
▁ညိုမည်း	-12.9107
▁၁၂၇၃	-12.9107
ncod	-12.9107
▁နေ့ကောင်းရက်	-12.9107
▁ဂေါ်ဘီ	-12.9107
▁ညှို့	-12.9107
▁ငေးကြောင်	-12.9107
nif	-12.9107
▁နှင်းလျှော	-12.9107
▁be	-12.9107
▁တညီတညွတ်	-12.9107
▁Eva	-12.9107
▁ကန်စွန်းရွက်	-12.9107
▁ဝေါ့ဇ	-12.9107
▁အယ်လ်ဖာ	-12.9107
MI	-12.9108
▁Bans	-12.9108
▁ကိုယ်ချင်းစာ	-12.9108
▁သန္ဓေ	-12.9108
▁ဂေါ်ဖီ	-12.9108
▁ပန်းဝတ်မှု	-12.9108
mpa	-12.9108
▁အခံရ	-12.9108
▁မာဂ	-12.9108
▁Science	-12.9108
link	-12.9108
▁ဆုံးခန်းတိုင်	-12.9108
▁ရွှေဘုန်း	-12.9108
▁သေကံ	-12.9108
▁ဂျီဗရ	-12.9108
▁ဆန်ဖရန်စ	-12.9108
▁ရတ်ချာ	-12.9108
ုန်းကြ	-12.9108
▁တေးသီ	-12.9108
Brow	-12.9108
▁ရေကောင်းရေသန	-12.9108
scop	-12.9108
▁အရုဏ်တက်	-12.9108
▁Sara	-12.9108
▁မဟာရာဇဝင်	-12.9108
stan	-12.9108
pra	-12.9108
▁ကိုယ်လုံးတီး	-12.9108
▁ဆိုရန်တ	-12.9108
▁All	-12.9108
▁ငါးထပ်ကြီး	-12.9108
▁ဝီလီယမ်	-12.9108
တသန္တ	-12.9108
▁Call	-12.9108
▁အထင်အမြင်	-12.9108
▁လှိုဏ်ဂူ	-12.9108
▁ဗဟိုမဏ္ဍိုင်	-12.9108
မုတ္တိ	-12.9109
isto	-12.9109
aea	-12.9109
▁Missi	-12.9109
▁လက်ကိုင်ဖုန်း	-12.9109
လှည့်ခရီးသ	-12.9109
▁Dai	-12.9109
▁Tw	-12.9109
▁ကြေးညို	-12.9109
ဂျိုးဇက်	-12.9109
▁အီဖယ်	-12.9109
▁နေ့ကြီးရက်	-12.9109
▁ဂျော်ဂျီ	-12.9109
▁ခြေတံရှည်	-12.9109
▁ချွေးစေး	-12.9109
mai	-12.9109
uro	-12.9109
ညီညီ	-12.9109
▁ac	-12.9109
▁ဝမ်းဘဲ	-12.9109
▁Arch	-12.9109
▁အစီအ	-12.9109
▁Tom	-12.9109
▁ငါးမန်းတောင်	-12.9109
▁Up	-12.9109
▁ဒဲဂ	-12.9109
▁ခြေကုတ်	-12.9109
▁သေကြေ	-12.9109
လစ်ဘ	-12.9109
▁ကားလို့စ်	-12.9109
▁အယ်လ်ဂျ	-12.911
▁အန္တာတိ	-12.911
▁တစ်ရာ့သုံး	-12.911
▁ချမ်းအေး	-12.911
▁အီသီ	-12.911
bin	-12.911
▁ကြပ်ခိုး	-12.911
Ursa	-12.911
▁Ita	-12.911
▁ဂျာနယ်ကျော်	-12.911
ခွန်စိုက်	-12.911
▁ဖဲချပ်	-12.911
▁သပိတ်လွယ်	-12.911
vel	-12.911
က္ကလင်း	-12.911
▁ယန်စီ	-12.911
်ပြန့်	-12.911
▁ရီပို့	-12.911
င်ဒွိုင်	-12.911
ပယ်လ်	-12.911
▁ကုန်ထုတ်လုပ်	-12.911
▁ဂွင်	-12.911
by	-12.911
▁sna	-12.911
▁ထခုန်	-12.9111
▁Ar	-12.9111
▁တစ်သောင်းတစ်	-12.9111
▁မာစတ	-12.9111
easure	-12.9111
▁ကိုးသောင်း	-12.9111
▁Lat	-12.9111
▁အာဂျင်	-12.9111
eim	-12.9111
uper	-12.9111
ham	-12.9111
ဟာမက်	-12.9111
▁ညိုမ	-12.9111
▁ဝမ်းကိုက်	-12.9111
▁ဒိုင်အို	-12.9111
▁မာလိ	-12.9111
နိမ့်တုံ	-12.9111
Rich	-12.9112
▁per	-12.9112
▁တစ်ရာ့နှစ်	-12.9112
▁သိဒ္ဓ	-12.9112
eep	-12.9112
▁ကောလဟ	-12.9112
မျက်ရ	-12.9112
Rub	-12.9112
ပ္ပါး	-12.9112
ime	-12.9112
▁ကမ်းခြေစောင့်	-12.9112
င်ထရို	-12.9113
Sunda	-12.9113
geo	-12.9113
▁သူရဲဘော	-12.9113
▁ကော်ပီ	-12.9113
rest	-12.9113
င်ကျူ	-12.9113
▁ရက်သတ္တတစ်ပ	-12.9113
တင့်တယ်	-12.9113
▁ကောက်နုတ်	-12.9113
▁ဘလူး	-12.9113
▁အဟန	-12.9113
▁မှောက်လျက်	-12.9113
▁ဖနွန်	-12.9113
▁And	-12.9113
▁တစ်ထောင့်တစ်ရာ	-12.9113
▁စီမံအုပ်ချုပ်	-12.9113
▁အမြန်လမ်းမ	-12.9114
▁လူနေအိမ်	-12.9114
တုတ်တုတ်	-12.9114
▁ပန်ကိတ်	-12.9114
rai	-12.9114
ာဇံ	-12.9114
▁အညောင်း	-12.9114
▁But	-12.9114
▁မိန်းမချော	-12.9114
▁AT	-12.9114
▁Mrs	-12.9114
▁ဖုံးလွ	-12.9114
▁ဝန်ထောက်	-12.9114
▁မန်ဂ	-12.9114
တစ်ပြည်သူ	-12.9114
ira	-12.9114
▁အရှုပ်အ	-12.9114
▁မြင်းခွာ	-12.9115
▁ဆူဖ	-12.9115
ရူပီ	-12.9115
Heart	-12.9115
▁ဆန်းစ	-12.9115
mint	-12.9115
ပ်အတည်း	-12.9115
▁Tab	-12.9115
ူးဘား	-12.9115
တက်စ်မန်	-12.9115
▁သံအရာရှိ	-12.9115
▁ဗီတို	-12.9116
သုတ်ပ	-12.9116
▁Cre	-12.9116
▁Bell	-12.9116
yde	-12.9116
▁မိုက်ခ	-12.9116
▁အငို	-12.9116
ေးခွ	-12.9116
▁Din	-12.9116
▁နယ်သာ	-12.9116
▁ဂျကာ	-12.9116
ဆိ	-12.9116
▁ခုခံအား	-12.9116
ပေါ့ဒ်	-12.9117
▁နေရာအနှံ	-12.9117
သည်းထန်	-12.9117
ဂလန်	-12.9117
▁ဧည့်ဝတ်	-12.9117
▁သက်ငယ်	-12.9117
▁ဝါးရွက်	-12.9118
▁အချဉ်ရည်	-12.9118
▁နန်စီ	-12.9118
▁Spe	-12.9118
▁ဘကြီးတော်	-12.9118
▁ယူနီဗာ	-12.9118
၃၃၄	-12.9119
ော်ဒန်	-12.9119
▁အိုက်စပ်	-12.9119
တလေးတ	-12.9119
လဗတ်	-12.9119
▁ယူရိုပါ	-12.9119
mas	-12.9119
Lord	-12.9119
▁Tri	-12.912
▁ခြင်ဆေး	-12.912
ေါ့စ	-12.912
hot	-12.912
ံအမာ	-12.9121
ffi	-12.9121
ိုးအကာ	-12.9121
ဂွပ်	-12.9121
▁Bran	-12.9121
ws	-12.9121
▁Du	-12.9121
ထစ်ချ	-12.9121
▁နို့ဆီ	-12.9121
ီလီန	-12.9121
▁အစာရှာ	-12.9122
ရေးမှူး	-12.9122
ngH	-12.9122
▁ကြက်သားဟင်း	-12.9122
ဆာဝင်စတန်	-12.9122
▁ဆီးန	-12.9123
▁ချဉ်ရည်	-12.9123
pu	-12.9123
ကြီးကြပ်ရေး	-12.9123
▁အခက်အ	-12.9123
ရှားမန်း	-12.9123
▁ကိုသန်းတင်	-12.9123
▁ရွှေနန်းတော်	-12.9123
▁Per	-12.9123
အန်ကော	-12.9124
ာသာပ	-12.9124
lais	-12.9124
▁He	-12.9124
▁ဘတ်စကတ်	-12.9124
heran	-12.9125
▁သီးစုံ	-12.9125
▁ဒေါ်စော	-12.9125
လည်ကြောင်	-12.9125
▁၀၁	-12.9125
ခရို	-12.9125
▁ကဗျာဆန်	-12.9125
stra	-12.9126
▁ထွန်းထွန်း	-12.9126
▁အေးစိမ့်	-12.9126
▁ကုန်းနေ	-12.9126
▁တစ်ကိုယ်ရေ	-12.9126
▁စားမြိန်	-12.9126
▁ဆံပင်ကောက်	-12.9126
ဝဲလ်	-12.9126
▁အာကီ	-12.9126
▁ကြယ်ငါး	-12.9126
ပျော့စိ	-12.9127
▁ပဲ့တင်	-12.9127
ech	-12.9127
eam	-12.9127
နိုဗာ	-12.9127
▁ပင်လယ်ခရီး	-12.9128
▁ဆွမ်းခံ	-12.9128
ကလိန်	-12.9128
rel	-12.9128
▁ဂမ်	-12.9128
▁ဒူးရောင်	-12.9129
၆၂၃၇	-12.9129
▁အဝင်အ	-12.9129
▁၀၂	-12.9129
▁ဒေါ်သန်း	-12.9129
▁စီးပွားရှာ	-12.913
ရိုးတံတိုင်း	-12.913
ဗေး	-12.913
▁သာသနာပိုင်	-12.913
▁မိုးပျံ	-12.913
ဖြူရော	-12.9131
▁ငါးမန်း	-12.9131
▁တံစိုး	-12.9131
▁ဘေးမသ	-12.9132
▁စစ်ဘေးဒဏ်	-12.9132
▁တိုင်တန်းန	-12.9132
်စမစ်	-12.9132
▁ကျမ်းကိုး	-12.9132
းဘရ	-12.9132
▁အပြာနု	-12.9132
▁ဒေါ်ခင်မ	-12.9132
လုံလေ	-12.9132
ထွတ်	-12.9132
DR	-12.9133
ညှီ	-12.9133
့ကျင့်	-12.9133
▁အသိမှတ်	-12.9134
၇၇၁	-12.9134
စာမူ	-12.9134
မစွ	-12.9134
၀၉၅	-12.9135
Sha	-12.9135
▁လက်တွန်း	-12.9135
sters	-12.9135
▁အိတ်ချ်	-12.9135
▁ရှင်စော	-12.9135
▁ဥဩ	-12.9136
▁Ri	-12.9137
▁တိုင်းခန်းလှည	-12.9137
▁အစွပ်	-12.9137
▁ဆပ်စ	-12.9137
▁ဝိုင်းဝိုင်း	-12.9137
၃၉၆	-12.9138
aterial	-12.9138
လိပ်စာ	-12.9138
▁ခွက်မြှောက်	-12.9138
▁အာရု	-12.9139
▁အားလူး	-12.9139
▁လက်ဆင့်က	-12.9139
▁ဦးလွန်း	-12.9139
▁စုံညီ	-12.9139
rave	-12.9139
ော့ပေါ့	-12.9139
▁လပ်စ်	-12.9139
▁လူ့ကျင်	-12.914
▁အိုမင်း	-12.914
▁ပို့စက	-12.914
▁ရုပ်သေး	-12.9142
▁ညီငယ်	-12.9142
▁အားဖြည့်	-12.9143
III	-12.9144
သိက	-12.9144
etho	-12.9144
ဿနာ	-12.9144
▁ကွဲပြားခြားနား	-12.9144
▁ပုထိုးစေတီ	-12.9145
▁ခိုင်ခိုင်	-12.9145
ဥပါယ်	-12.9145
တိက	-12.9146
▁သံချပ်	-12.9146
▁ဆိပ်ကြီး	-12.9146
▁မောင်ထွန်း	-12.9147
ဗယ်	-12.9147
▁သတင်းထုတ်ပြန်	-12.9147
▁၉၂၅	-12.9148
▁မောင်သစ်	-12.9148
အာဂတဝိသန	-12.9148
▁အစာချေ	-12.915
Mc	-12.915
▁ရှန်ဟဲ	-12.915
▁အချီး	-12.915
ကြော့ရှင်း	-12.915
▁ပန်းပဲ	-12.915
▁ချိတ်ထ	-12.9151
▁Cri	-12.9151
▁ရွှေဖ	-12.9151
သရော	-12.9152
▁ရွှေရင်	-12.9152
ဘွိုင်	-12.9152
ဿယ	-12.9152
▁ဆိုင်က	-12.9152
amil	-12.9153
်နိ	-12.9153
သက်ရောက်	-12.9153
▁ရှီ	-12.9153
▁အမုန်း	-12.9154
ပိန်ပိန်	-12.9154
▁ခြောက်လှန	-12.9154
▁ဂျွန်က	-12.9155
▁အက်ရှင်	-12.9155
▁ခြံထွက်	-12.9155
▁တဟုန်	-12.9155
ဘောအ	-12.9156
▁ဖယ်ရီ	-12.9157
▁ငလုံး	-12.9157
▁အထင်အ	-12.9157
▁လူမိုက်	-12.9158
▁ထောက်ပံ့ကြေး	-12.9158
▁သွေးလွှတ်	-12.9158
▁ဦးဇော်	-12.9159
▁၁ဝ၉	-12.9159
ဂျောန်	-12.9159
▁မတ်တပ်	-12.916
မာဘတ်	-12.916
▁ရေတို	-12.916
▁ဂျိမ်းဖော	-12.916
▁ချိုင့်	-12.9161
▁ဆာဗာ	-12.9161
▁ပက်လက်ကု	-12.9161
▁မိဘမဲ့	-12.9162
▁မက်တာဖ	-12.9162
▁၅၈၈	-12.9163
▁မူးနောက်	-12.9163
ညိမ့်	-12.9164
အူလ်	-12.9165
▁ကြက်သီး	-12.9165
ဒဂု	-12.9166
▁ပုပ္ပ	-12.9167
▁ရေပုံး	-12.9167
▁ဆိုင်ဂ	-12.9167
▁အိပ်ချင်	-12.9169
TR	-12.9169
▁ခံတွင်းကောင်း	-12.9169
ီးစီ	-12.9169
ဘရိုက်	-12.917
▁အောက်စဖို့	-12.917
တမ်းတ	-12.9174
ွှင်	-12.9174
rap	-12.9174
▁ထိုးစစ်	-12.9175
tele	-12.9175
▁၄၀၉	-12.9175
Sri	-12.9175
ကံ	-12.9176
▁ရေမတင်	-12.9177
▁တွန့်	-12.9179
မဲနမ်	-12.9179
▁အံဝင်	-12.918
▁၂၁၇	-12.918
အမော်	-12.9181
▁ဝန်တင်	-12.9181
▁၁၄၀	-12.9181
▁အချိုမှုန	-12.9181
▁ကျူးလစ်	-12.9183
▁အဟော	-12.9183
ဥဒက	-12.9183
▁ဂရက်	-12.9185
မာပင်	-12.9185
▁မိတ္ထ	-12.9185
▁ကြည့်ရှု့	-12.9186
▁En	-12.9186
▁စက်ခေါင်း	-12.9187
▁ဖူ	-12.9187
▁အသင့်	-12.9188
▁အကြိတ်	-12.9188
▁ပင်လယ်ရေကြောင်း	-12.9189
▁ပွဲကြည့်	-12.9189
န်ဒါ	-12.9189
ရွှေကြက်	-12.919
▁တံစ	-12.919
sk	-12.9191
ာပရာ	-12.9191
တီအို	-12.9191
ဘုံသာ	-12.9193
ကျွတ်ကျွတ်	-12.9195
်တီက	-12.9195
dam	-12.9198
ဖျူး	-12.9198
▁အပေါင်	-12.9199
bert	-12.9199
RA	-12.9199
▁မူကြို	-12.92
ရသ	-12.9201
Bh	-12.9201
ည်သန်	-12.9201
▁လက်ယက်	-12.9203
▁မနေ့တ	-12.9203
▁စင်းလုံး	-12.9205
▁ပုံထု	-12.9205
▁တစ်ထောင့်တစ်	-12.9206
▁ကြမ်းတိုက်	-12.9208
▁ယိ	-12.9209
ရသမ	-12.9209
▁အဆိပ်မ	-12.921
ီယံ	-12.921
တောကြက်	-12.921
▁အရုဏ်	-12.921
၂၁၅၇	-12.9211
▁ရယ်ဒီ	-12.9211
ောင်းပွ	-12.9211
▁အလု	-12.9211
sing	-12.9214
▁တန်းမြင့်	-12.9215
့ဖ်	-12.9216
▁Malay	-12.9216
PU	-12.9216
▁မှတ်ပုံ	-12.9216
▁ကွမ်ရှီ	-12.9217
▁ဦးသောင်း	-12.9218
ထိုင်ရ	-12.9218
ရီကာ	-12.9218
▁အသားမာ	-12.9218
▁ကျောက်သ	-12.922
ီးဟ	-12.9223
ဗျား	-12.9223
▁အခရာ	-12.9224
nis	-12.9226
▁အမှတ်တ	-12.9226
▁ဖောင်တော်	-12.9228
▁၂၈၇	-12.9229
▁တောသ	-12.923
▁ချဲ	-12.9232
▁အဝတ်တန်း	-12.9233
▁၁၁၃	-12.9233
ွန်ဒိုင်အောက်ဆို	-12.9234
က်ဒေါ	-12.9234
ဗရာ	-12.9235
▁အန္တ	-12.9236
▁ဗင်္ဂ	-12.9236
▁စတ	-12.9236
▁ဆန်နှစ်	-12.9238
ရိုမန်	-12.9239
်မိုရို	-12.9239
င်ကူ	-12.9239
▁Mut	-12.924
▁ဗက်ဒ	-12.9241
ပူညံ	-12.9242
▁ကုန်းမ	-12.9242
▁အနိုင်ယူ	-12.9245
▁ဟိန	-12.9249
တ်ရန့်	-12.925
▁မဏ္ဍ	-12.9251
▁မျက်နှာသစ်	-12.9252
▁ဖရန့်	-12.9252
▁ဘိုင့်	-12.9253
igu	-12.9255
Men	-12.9257
၂၇၅	-12.9258
သူရဲ	-12.9258
အရေး	-12.9259
င်လှုပ်	-12.926
▁ရာပြည့်	-12.926
▁chrom	-12.9263
နာမီ	-12.9263
▁မီးအားမ	-12.9263
▁သင်္ခ	-12.9264
▁မြေဖြူ	-12.9265
▁ဂန္ဓ	-12.9265
▁ပဏ္ဍ	-12.9267
▁အစစ	-12.9268
▁အနာအဆာ	-12.9269
ရေမြေ	-12.9269
▁အလျင်မ	-12.9269
▁Galile	-12.9269
▁ကာမိ	-12.9269
▁ဂျူနီယာ	-12.9269
▁ယူနိုက်တက်	-12.9269
▁ဗေကင်	-12.9269
▁ပရိယာရ်	-12.9269
▁ကလမန်းစိုး	-12.9269
▁ကျောက်စက်	-12.9269
▁ရိုင်ဘို	-12.9269
▁Inc	-12.927
ဝုန်း	-12.9271
က်ခတ်	-12.9271
▁တရားတ	-12.9272
▁မီလီ	-12.9272
▁Tru	-12.9273
▁သရော်	-12.9273
ရော့ခ်	-12.9274
ဘတ်ဂျ	-12.9274
▁ကတ်သလစ်	-12.9274
▁ဂန္ဓီ	-12.9275
▁ရာမညရာဇ	-12.9276
▁ဂန္တ	-12.9277
ign	-12.9279
mono	-12.9279
▁ဖဲက	-12.9279
▁စိမ်းစိမ်း	-12.9279
ကလင်း	-12.928
်းဒေါင်	-12.9281
ဒိုရာ	-12.9281
▁စာရင်းစစ်	-12.9284
▁ရေပြင်း	-12.9284
AD	-12.9285
▁ကိုးရာ	-12.9285
ms	-12.9286
ဇူး	-12.9288
▁ဘုန်း	-12.9289
မစွမ်း	-12.929
▁အိမ်ခြံ	-12.929
ဆလွန်း	-12.929
▁ဦးမောင်	-12.9294
▁မြင်းခ	-12.9294
သဲကွဲ	-12.9295
▁ဂုတ်	-12.9295
ပဇ္ဇ	-12.9296
▁ဆင်းဆင်း	-12.9296
▁ဝပ်ကင်းပီးပယ်ဒေ	-12.9296
▁မြင်းစီး	-12.9297
▁ခွေးပေါက်	-12.9297
ာဘိဓ	-12.9302
▁ကိုယ်အား	-12.9303
▁ဆိုဂျူ	-12.9308
▁မွန်ဂိုလီယ	-12.9308
ရင်းအ	-12.9309
▁သောမတ်စ်	-12.9309
ဒရာ	-12.9309
ကောက်ကောက်	-12.931
▁ခြောက်ထပ်	-12.9311
▁ကျောက်ချ	-12.9311
▁တကမ္ဘာ	-12.9316
▁မရေရာ	-12.9319
အချ	-12.9321
▁လျှောက်ပြ	-12.9321
၂ဝဝဝဝဝ	-12.9323
ကမ္ဗု	-12.9324
▁မက်ထရစ်	-12.9326
ဝါယ	-12.9326
အေးချမ်း	-12.9327
Ga	-12.933
စံမြ	-12.933
▁fil	-12.933
▁ဓားပြ	-12.9332
▁လူကြုံ	-12.9332
▁မျက်စ	-12.9334
မသိမ်း	-12.9335
▁ကျင့်သား	-12.9336
ဆေးစာ	-12.934
ဘားမိ	-12.9342
▁အောင်မယ်	-12.9343
visi	-12.9344
▁plat	-12.9346
▁သုံးသိန်း	-12.9347
▁တထောက်	-12.9348
own	-12.9351
ွက်ပ	-12.9351
▁သားမင်း	-12.9354
▁လူရိပ်	-12.9355
▁ထရေ	-12.936
ခါဘို	-12.9362
လှိုက်လှဲ	-12.9362
▁ရုပ်ပိုင်း	-12.9362
▁စားချင်	-12.9363
▁တစ်ငုံ	-12.9363
ကလျာဏ	-12.9364
evit	-12.9364
▁အကြို	-12.9368
▁အိပ်ချ	-12.9375
CM	-12.9375
▁ချဒ်	-12.9376
ျန်	-12.9377
ach	-12.9378
ဉာဏ်စွမ်း	-12.9379
သီလဝ	-12.938
ဲလေး	-12.9381
▁အမျိုးကောင်း	-12.9386
▁ငါးသေတ္တာ	-12.9388
ထရိုင်	-12.939
▁ကယ်ဆယ်ရေး	-12.9391
▁စတီး	-12.9397
▁Mich	-12.9401
ေနံဓာ	-12.9405
▁နားပူ	-12.9407
▁အာဏာရ	-12.9408
ဘီအ	-12.9413
▁သွေးဆောင်	-12.9414
Chi	-12.9422
ုသိမ်	-12.9423
ေးနီးယ	-12.9424
▁ဟာဝိုင်	-12.9428
ခရာ	-12.9433
မှန်မ	-12.9436
းထစ်	-12.9437
Sta	-12.9441
တုတ်ထိုး	-12.9443
▁နှိမ့်	-12.9444
▁အဆန်	-12.9444
ရိုးကျ	-12.9445
▁ရွှေတိုက်	-12.9447
▁ပင်လယ်ထွက်	-12.9448
ျူ	-12.9449
▁ကျောက်တောင်	-12.9453
▁ဒီးဒ	-12.9453
▁bu	-12.9459
▁တက်စ	-12.9459
၆၁၂	-12.9462
လျံ	-12.9466
▁ဥပါ	-12.9468
ပါးရ	-12.947
▁နွားသား	-12.9476
▁လမ်းပန်း	-12.9476
▁ကတ္တရာ	-12.9478
▁ဦးသိန်း	-12.9478
မဏိပ	-12.9479
▁ရွာသူ	-12.9481
▁လက်ရုံး	-12.9485
ိန္ဒ	-12.9485
▁ဟန်မ	-12.9487
▁ခုနှစ်ဆယ်	-12.9489
▁မတ်တာ	-12.9489
င်းဖြူ	-12.9493
irman	-12.9496
လီဒို	-12.9496
▁နို့နံ	-12.9503
အဆင့်	-12.9504
▁တရစ်	-12.9506
တာပူ	-12.9511
နေ့ခင်း	-12.9513
▁အပြောင်	-12.9515
▁အမွှေး	-12.9518
ွိုင်း	-12.952
စံအိမ်	-12.952
▁စားပွဲခုံ	-12.9521
hark	-12.9521
▁အချီ	-12.9524
▁ရေဆိုး	-12.9526
▁ဦးလှ	-12.9529
ဲပြု	-12.9534
▁Interna	-12.9542
▁Inter	-12.9542
▁ခြေရာ	-12.9549
▁ဦးမြတ်	-12.9551
▁ရေဆင်း	-12.9552
▁ပုထိုး	-12.9561
Don	-12.9562
ဘော့	-12.9567
▁နယူ	-12.9571
▁ဗုဒ္ဓဝင်	-12.9572
ွတ်ခ	-12.9574
ျယ်	-12.9579
▁ဂျယ်လ	-12.9581
▁ပရီ	-12.9584
▁စားသောက်ကုန်	-12.9584
က်ဝါး	-12.9588
စည်းမ	-12.9593
▁ခြောက်ရာ	-12.9593
တိပြု	-12.9594
▁မြောက်ဘက်	-12.9595
▁ဦးစံ	-12.9596
ဂယက်	-12.9599
igit	-12.9599
▁ညွန်	-12.9601
လှည့်ဖ	-12.9602
မြို့ကြီး	-12.9604
ဆင်းရဲ	-12.9606
▁ထုတ်ပြ	-12.9611
ဝေါင်	-12.9611
▁ရှာလ	-12.9615
▁ပြုန်း	-12.9618
▁Stewar	-12.962
ယူဂျင်း	-12.9622
ဝတ်လဲ	-12.9628
lett	-12.9633
▁စာပြန်	-12.9634
▁တေ	-12.9635
▁ကျောင်းစ	-12.9643
▁ဆပ်ဖို	-12.9645
▁ပင်နီ	-12.9647
▁လွတ်က	-12.9654
၂၇၅၈	-12.9658
▁အိုလ	-12.9658
▁အလေးမ	-12.9661
်ငှက်	-12.9661
နာဂါ	-12.9666
ကွင်းကွင်း	-12.9673
▁မရမ	-12.9675
▁ကိုယ်ရ	-12.9677
ဗျိုင်း	-12.9677
▁နို့မ	-12.9681
▁ရာမာ	-12.9684
▁အကွဲ	-12.9688
ဗီယေ	-12.9701
▁လမ်းစ	-12.9709
ဇိုရ	-12.9716
▁စိမ်းလန်းစိုပြ	-12.9718
▁သူယုတ်	-12.9718
rocess	-12.9718
၂၂၄	-12.9727
ဆွန်း	-12.9734
atur	-12.9736
ေအီးအ	-12.9737
▁အပစ်	-12.9744
စိုစို	-12.9745
▁စိန့်	-12.9749
▁မွန်ဂိုလ	-12.9751
▁လေပြေ	-12.9768
လက်ပက်	-12.9772
▁တွဲစောင့်ခ	-12.9772
၂၆၀	-12.9773
နီဗာ	-12.9782
ေသ	-12.9798
ထင်သာ	-12.9801
တီးသံ	-12.9812
▁ဟာရဒ	-12.9813
▁စဉ်း	-12.9814
တ်ချက်	-12.9818
▁တယ်လီဗ	-12.9818
▁သစ်ခ	-12.9824
ံ့အ	-12.9825
▁မျောက်မ	-12.9837
▁ဦးထွန်း	-12.9848
ဖွယ်ရာ	-12.9864
▁ရေစပ်	-12.9865
ိမိ	-12.9883
ywo	-12.9884
rds	-12.9894
ဇက်	-12.9897
ကွက်ကွက်	-12.9897
န်းန	-12.9901
▁ငယ်စဉ်	-12.9906
Mu	-12.9916
အင်ဂျီ	-12.9927
က်တွန်း	-12.9937
ode	-12.994
▁ယူဂျ	-12.9948
▁ဖိုတိုဆ	-12.9959
atom	-12.996
▁မီးက	-12.9963
းကျပ်	-12.9963
က်စပ	-12.9965
▁လစ်ဟ	-12.9968
၂၆၆	-12.9971
▁ချမ်းစိမ	-12.9976
▁ဂျမ	-12.998
မျိုးမျိုး	-12.9986
ေယာ	-12.9991
▁၅၃၂	-12.9997
က္ကရ	-13.0002
▁ပဲစိမ်း	-13.0014
ွန်ဒါ	-13.0015
၆၈၇	-13.002
▁ဘောလ်တ	-13.0027
ရဲဝံ့	-13.0028
▁လူခေါ်	-13.0031
▁အိုင်း	-13.0036
ကြိုးကြား	-13.0044
organi	-13.0044
▁စကာ	-13.0047
ောင်စော	-13.005
ဗို	-13.0054
ခါးနာ	-13.0056
မ်ဆန်	-13.0067
▁၇၀၅	-13.009
bot	-13.0096
းဂဲ	-13.0102
လီလီ	-13.0104
ီပီ	-13.0105
▁Pho	-13.011
▁Pat	-13.0117
အားမရ	-13.0127
၂၇၀	-13.0133
▁ဆီသ	-13.0134
၂၂၈	-13.0163
▁လူရိုး	-13.0167
tru	-13.0176
ouv	-13.0179
UMiA	-13.0193
မီနာ	-13.0194
▁စိုင်း	-13.0209
▁uni	-13.0213
ူဂူ	-13.0227
▁အလွှာ	-13.0239
Ro	-13.0241
pen	-13.025
▁ကောလိပ်ကျောင်း	-13.0254
▁Inte	-13.0262
▁မော်စီတု	-13.0269
emiu	-13.0273
▁ပေါ်စ	-13.0276
အဖု	-13.0297
န်တ	-13.03
အီဗ	-13.0302
▁Hol	-13.0305
ွေးဝယ်	-13.0314
းကောင်း	-13.0323
▁ကွမ်တု	-13.0336
▁ဆာရာ	-13.0337
▁စွမ်းအ	-13.0342
၄၄၄	-13.0343
▁သွန်းလ	-13.0347
▁ဘရာ	-13.0351
▁၁၆ဝ	-13.0379
▁ထမင်းချိုင	-13.0379
ket	-13.0384
က်ကပ်	-13.0384
▁ဝရု	-13.0392
▁တုံကင်	-13.0408
ab	-13.0436
ိန္န	-13.0437
▁ယင်	-13.0443
▁ဆာဒ	-13.0444
▁စွဲလ	-13.0449
▁can	-13.0462
▁Ind	-13.0476
▁ဘက်ပ	-13.0489
▁ဂိုဒ	-13.0497
လူဝီ	-13.0508
dh	-13.0512
▁လမ်းသွား	-13.0518
စိတ်သန်	-13.0524
odi	-13.0584
ီးအမှ	-13.0585
▁အက်တ	-13.0586
က်မြ	-13.0588
နက်နက်	-13.0621
ါဝ	-13.0626
ပိုင်းအစ	-13.0635
▁ရပ်တန	-13.0657
▁Prot	-13.0662
▁ဂဗ	-13.0676
umer	-13.0676
▁ဗက်တ	-13.0704
vir	-13.0708
ha	-13.0714
နွံ	-13.0737
imit	-13.0742
▁Sol	-13.0758
ဂျေပ	-13.0762
▁pie	-13.0769
▁ကလျာ	-13.0772
▁စကော့တစ်	-13.0786
▁ဖေါင်	-13.079
old	-13.0793
▁ကာဗ	-13.0794
လင်းနီး	-13.0838
က္ကတ	-13.0844
ဝေစု	-13.0845
gar	-13.0849
▁လန်န	-13.085
▁နီနီ	-13.0864
တ်ဖ	-13.0886
▁မုတ်ဆိတ်မွ	-13.0893
အားကြီး	-13.0908
▁Pol	-13.092
ကွဲမတ	-13.0921
လိမ်းဆ	-13.0921
းမုန်	-13.0933
▁သက်သေခံက	-13.0958
ာအီလ	-13.0962
န္တပ	-13.0962
▁pin	-13.0965
းဟပ်	-13.0966
းမွေး	-13.0984
▁Carn	-13.0998
▁သီရာ	-13.0998
▁Indian	-13.1011
ဂါရို	-13.1011
hu	-13.1015
laci	-13.1019
ထောင်ပြ	-13.1035
▁မဟာမင်း	-13.108
အာန	-13.108
ဿတရ	-13.1109
းသား	-13.1177
▁ကွဲကွ	-13.119
ရွေ့ရ	-13.1205
oast	-13.1303
niversal	-13.1312
ဥဒ	-13.132
မာကြောင်း	-13.1321
▁ဂျွန်ဟ	-13.1323
▁ဖားက	-13.1324
rout	-13.1328
rus	-13.134
ဖူ	-13.1363
စိန်ရ	-13.1384
duc	-13.1393
ှော့	-13.141
▁Los	-13.143
ူလန်	-13.1431
ကြမ်းတမ်း	-13.1436
▁အလဟ	-13.147
ဝ၄၄	-13.1475
▁အရိုးပြ	-13.1486
စိန်တင်	-13.1486
▁Hos	-13.1493
▁ထီးဆောင်	-13.155
ဗူ	-13.1606
ဘောက်	-13.1612
အဲလ်	-13.162
▁Sep	-13.1626
▁ဟန်ပ	-13.1632
tend	-13.1642
▁ဂျင်မ	-13.166
ဒေဝ	-13.1664
င်းသ	-13.1672
NS	-13.1675
▁Chal	-13.1675
ils	-13.1731
▁ရေသန	-13.1733
တစ်ဆ	-13.1753
▁မရပ်မ	-13.1758
hy	-13.1787
ယ်ရီ	-13.1788
ွန်းပ	-13.1792
ကြဉ်	-13.1811
ker	-13.1833
အင်ဒီးယ	-13.1835
mb	-13.1838
▁သန်းတစ်သ	-13.1848
▁mini	-13.1851
▁cla	-13.1875
▁su	-13.1922
▁Gon	-13.1922
▁စိတ်မနှံ	-13.1934
ဟာရှ	-13.1935
ွင်	-13.1939
▁ဂရ	-13.1954
▁Rai	-13.1965
▁ခဲမပ	-13.1974
▁ဖုန်ထ	-13.1991
▁Sin	-13.2017
▁အဝေးပြေ	-13.2035
ဂျီကျ	-13.2054
ုပ်စာ	-13.2092
rie	-13.2095
ဂလီ	-13.2138
ဘဏ်	-13.2153
▁ရင့်မ	-13.2166
တ်ဝမ်	-13.2168
lle	-13.2173
ased	-13.2189
အထ	-13.2206
ကြိုကြား	-13.2213
ာကာ	-13.2217
idr	-13.2218
▁အရောင်လွင	-13.2231
ထူးထူး	-13.2241
ော်ကား	-13.2256
ဦးမေ	-13.2284
▁ညှ	-13.2306
▁Prach	-13.2312
aya	-13.2321
ဂျင်	-13.2332
နိက	-13.2335
၃၂၁	-13.2338
▁ချောမွ	-13.2345
ငုံ့	-13.236
လုပ်ကိုင်	-13.2361
▁crea	-13.2382
ဒေါင့်	-13.2383
၅၂၁	-13.2414
▁ကျွန်တ	-13.2452
ကလ	-13.2468
ရိုဖ	-13.2479
ာဂျရ	-13.2506
န္ဓ	-13.2513
nom	-13.2519
▁ယွ	-13.2562
▁She	-13.2575
▁ဟိုင်းလ	-13.2579
▁ဩစတြေး	-13.258
mi	-13.2581
▁Ra	-13.2588
ကျော်စိုး	-13.2609
▁ဩစတြေ	-13.2618
erm	-13.2713
illo	-13.2717
ီတ	-13.2736
artic	-13.2737
၀၅၁	-13.2747
eh	-13.2786
▁ဘိုးဘ	-13.2835
ရွက်စုံ	-13.2872
၉ဝ၂	-13.2879
▁ဟေလ	-13.2883
anne	-13.2886
▁သေနတ်ကျ	-13.289
ူးတောင်	-13.2895
▁အရွက်ကြ	-13.2918
▁အပျ	-13.2944
spr	-13.2962
်လ	-13.2976
လာပ	-13.2981
hi	-13.2986
တောင့်	-13.3012
▁no	-13.3023
erio	-13.3024
riou	-13.3034
ိုးကောင်	-13.3057
▁အဲဗ	-13.3074
ပုထိုး	-13.3076
က်တူရွ	-13.3095
▁ကုန်းတွင်းပိ	-13.313
ကူဗီ	-13.3144
က်ဖာ	-13.3151
Si	-13.3164
ျွန်း	-13.3177
hous	-13.3182
ini	-13.3183
▁ငထွေ	-13.3191
▁အရင့်	-13.3251
atho	-13.329
ထော	-13.3293
ဟီရ	-13.3305
oh	-13.3308
glas	-13.3336
▁ဗုဒ္ဓမြတ်စွာ	-13.3365
beta	-13.3396
▁ယမ	-13.341
▁ဂျေအ	-13.3473
▁လူသွားလ	-13.348
ဒန်ဘ	-13.3486
▁စီစ	-13.3504
ောက်သီး	-13.3507
ros	-13.3521
hua	-13.3539
alle	-13.3548
spri	-13.3559
ymph	-13.3613
ေါ	-13.365
▁တိမ်က	-13.3655
▁ထုတ်ပ	-13.3664
▁ဆစ်က	-13.3668
်ချော်	-13.3693
atma	-13.37
cre	-13.3735
▁ကရာက	-13.3742
san	-13.3752
oid	-13.3785
▁ညီတူည	-13.3799
gas	-13.3804
elle	-13.3815
ျူရို	-13.3831
▁ရည်စ	-13.3841
ှင်	-13.3878
ယွင်	-13.3878
▁Tho	-13.396
rk	-13.3987
▁စူးစူး	-13.4024
▁အင်းလျားလ	-13.4035
▁ထန်းဖ	-13.4078
alif	-13.4114
ာပတိ	-13.4117
alo	-13.4135
▁ပွန်း	-13.4138
▁ရွက်လွှ	-13.4152
▁ကော်ပ	-13.416
▁Phil	-13.4166
▁Pad	-13.4172
သွန်မ	-13.4172
kh	-13.4173
Is	-13.4182
▁တုတ်က	-13.4208
num	-13.4308
တန်ဆောင်	-13.4319
▁စကော့တ	-13.4325
ကလျာ	-13.4332
▁လူသိမ	-13.4351
▁ဗက်စ	-13.4406
▁ရှောင်ကျ	-13.4408
cha	-13.4424
ဗီဟ	-13.4433
ော့ပါး	-13.4457
Ab	-13.4459
▁အယ်လ	-13.4496
်တီးရီးယား	-13.4515
ila	-13.4528
▁မိုးကု	-13.4578
ner	-13.4588
bu	-13.4622
▁လျ	-13.4637
bon	-13.4663
ပဏီ	-13.4704
ars	-13.4705
ိုးတန်	-13.4736
hom	-13.4739
▁တောက်တ	-13.4762
mes	-13.4775
▁ထိုးထွ	-13.479
ွမ်	-13.4834
mp	-13.4849
fu	-13.4853
gle	-13.4854
င်မင်းဆ	-13.4872
ိုးစား	-13.4916
▁Univers	-13.4928
ubl	-13.494
၂၂၁	-13.4944
▁Roa	-13.496
ဒီအေ	-13.5062
Henr	-13.5098
့အင	-13.5105
over	-13.5117
ag	-13.5133
sta	-13.5154
▁သဘ	-13.5156
ook	-13.5213
hang	-13.5227
▁ဖေါ	-13.5229
န်မဲ	-13.5297
Le	-13.535
ပရင်ဆ	-13.5353
Gla	-13.5365
▁ဟိမဝန္တာတော	-13.5371
▁သစ္စာစောင	-13.5372
ိုက်မတ်	-13.5378
ga	-13.5378
▁ဒိုင်န	-13.5389
▁Lan	-13.5405
▁ဟူးရာ	-13.5408
▁၃၅ဝဝ	-13.5468
▁eco	-13.5513
လင်တော်	-13.5523
oon	-13.5523
tre	-13.5539
သောမတ်စ်	-13.5547
▁ကံမ	-13.557
niti	-13.5583
းဒမ်း	-13.5594
ထေရ	-13.5608
omb	-13.561
▁အဖိုးအ	-13.5623
anna	-13.5641
ract	-13.5718
ိုင်ဘ	-13.5718
ndi	-13.5757
iT	-13.5788
၄၂၅	-13.5807
unc	-13.5878
ယွ	-13.5899
နက္ခ	-13.5913
ုတ္တရ	-13.5923
sun	-13.5958
တ်ဖဲ	-13.5966
mer	-13.5974
▁စည်းကျ	-13.604
onhur	-13.607
ရဟတ်	-13.6144
ender	-13.6165
▁ကျောက်ပွ	-13.6209
▁အင်ဂ	-13.6229
nment	-13.623
iki	-13.6276
န်းတောင်	-13.6295
▁ပစ်ပ	-13.6329
org	-13.6332
anism	-13.6333
▁အငြ	-13.6337
၂၄၀	-13.6344
▁Che	-13.6353
ပူလောင်	-13.6354
tel	-13.6355
hani	-13.6397
အူပ	-13.6422
ကျော်ဇ	-13.6436
ူးထူး	-13.6441
pha	-13.6491
ဆေ	-13.6494
terf	-13.6496
ester	-13.6496
ngko	-13.6498
ဲလစ်	-13.6517
ite	-13.6519
ara	-13.6527
ချူပ်	-13.6558
▁သတိတရ	-13.6563
mak	-13.6568
nl	-13.6574
▁၄၅၀၀၀	-13.658
▁၁၇ဝ	-13.6583
ဒီးဒ	-13.6588
ယွန်း	-13.6614
ev	-13.6622
ါ့စ်	-13.6625
vis	-13.6626
နှင်းမြ	-13.6652
းလီး	-13.6653
abo	-13.6664
ွှတ်	-13.6684
ba	-13.6686
▁Gar	-13.669
စ်ကက်	-13.6707
▁၃၇၀၀	-13.6708
ber	-13.6748
နယူးဂ	-13.6753
ူဗာ	-13.6758
ကြွေ	-13.6769
lar	-13.6787
၉၄၉	-13.6795
▁မောင်မြ	-13.6804
▁ဂျောင်	-13.6819
ခမ်းမ	-13.6827
ိုဗာ	-13.6848
ာသာရ	-13.6851
▁၃၈၀	-13.6875
မျိုးမြတ်	-13.6878
ES	-13.6883
▁ဝါသ	-13.6894
အင်န်	-13.6895
ကာဗာရ	-13.6902
▁Buc	-13.6917
ိုးမဲ့	-13.6922
ဟုမ်	-13.6925
▁စုတ်တ	-13.6983
်ဘီ	-13.6997
ဇန	-13.7003
▁gra	-13.7008
ီးအ	-13.7054
▁အန်န	-13.7071
▁ဘောလ်	-13.7081
▁ဝမ်လ	-13.7087
ဂျေ	-13.7094
ိတ်ခွေ	-13.7118
ေလီဆ	-13.7133
CA	-13.7151
ထရိုဂျင်	-13.7151
လွှတ်ပေး	-13.7187
ထင်မှ	-13.7189
ှည့်	-13.7194
▁Eli	-13.7212
လ္လ	-13.722
pot	-13.7239
ရွေးစ	-13.7243
▁အန်အယ်လ်	-13.7244
terr	-13.7245
က်ရှ	-13.7248
၉၉၁	-13.726
▁ဂျူလ	-13.7263
ခွာခွ	-13.7288
wor	-13.7292
nal	-13.7297
▁Plan	-13.7302
မြှင့်	-13.7305
key	-13.7364
၅၇၈	-13.7364
ik	-13.7381
anta	-13.7383
SS	-13.739
ှန်း	-13.7402
ဟာဗ	-13.7408
ော့ဒ်	-13.7415
လျှပ်	-13.7428
iat	-13.7438
ာလူး	-13.7445
ငြိမ့်	-13.7473
ugh	-13.7486
▁dra	-13.749
col	-13.7496
၆၂၃	-13.7521
ath	-13.7521
ကော့တ	-13.7525
▁စွဲမ	-13.7528
pit	-13.7545
ဆန်ဆ	-13.7589
▁နမော	-13.7598
map	-13.7599
ပ်ဖား	-13.762
▁လျော်က	-13.7633
ွန်ဖ	-13.7642
▁Nat	-13.7656
ီဇို	-13.769
စိတ္တ	-13.7707
▁အသားအရ	-13.7757
not	-13.7762
ှူ	-13.7768
til	-13.7769
၉၅၅	-13.777
၉၉၉	-13.7845
niform	-13.7861
ဖို့ဒ်	-13.7871
▁wh	-13.7872
ြေ	-13.7898
tter	-13.7904
tes	-13.7919
chu	-13.7924
▁ပြည့်နှ	-13.7935
ဆော	-13.7936
ုထုံ	-13.7944
▁Tha	-13.7947
git	-13.7952
▁Nia	-13.7962
၉၃၁	-13.7966
cess	-13.7979
ျူဒီ	-13.7979
La	-13.8004
မင်ဒီ	-13.8045
▁ဂျယ်	-13.8049
ple	-13.8056
bb	-13.8088
▁ဂျူရ	-13.8089
▁လရှီ	-13.8099
▁တက္ကဆ	-13.8108
ဂန်ဒ	-13.811
▁Eco	-13.8117
▁Hi	-13.8127
တယ	-13.8165
ngi	-13.818
းတောင်မ	-13.8185
တခါ	-13.8199
iped	-13.8212
၆၀၀	-13.8227
ဂေါ်	-13.8232
▁Ran	-13.8238
ider	-13.824
osp	-13.8261
လုံလုံ	-13.8272
▁ste	-13.8288
ရဲမင်း	-13.8289
▁အယုံ	-13.8353
ော့ရှ်	-13.8354
nit	-13.8364
esta	-13.8366
ashi	-13.8369
lit	-13.8378
▁စိတ်မချမ်း	-13.8398
ွေးလိမ်	-13.8403
▁Cho	-13.8411
illa	-13.8419
lot	-13.8435
ျံ	-13.8438
ရန့်စ်	-13.8443
▁Ace	-13.845
ကျန်းမာ	-13.8459
၇၇ဝ	-13.8465
vers	-13.8467
ဆင်ခြင်	-13.847
▁Pr	-13.8472
စ်ဘော	-13.8475
▁အင်ဒ	-13.8557
ှာ	-13.8564
ဂန္ဓီ	-13.8575
▁dri	-13.8581
၈၆၅	-13.8583
▁ကောက်င	-13.8583
လျှ	-13.8588
▁ဗြိတ	-13.8588
နီကွ	-13.8622
▁နန်းမြ	-13.8637
▁ဂျင်ဂ	-13.8637
ဇိုင်	-13.8637
မင်နီ	-13.8647
ဇာတိ	-13.8648
Hol	-13.8659
က်ဖျာ	-13.8674
ochr	-13.8679
ဟမ်	-13.868
ဟွ	-13.8684
မြို	-13.8692
အက်တလ	-13.8693
ဘုန်း	-13.8696
Tru	-13.8697
ဂန္ဓ	-13.8699
သင်္ခ	-13.87
ကလမန်းစိုး	-13.8701
ပရိယာရ်	-13.8701
ယူနိုက်တက်	-13.8701
Galile	-13.8701
ဂျူနီယာ	-13.8701
ရိုင်ဘို	-13.8701
Inc	-13.8701
မဏ္ဍ	-13.8701
ဗေကင်	-13.8703
ကတ်သလစ်	-13.8704
▁Gen	-13.8706
ားကွဲမ	-13.8706
၊	-13.8744
ဍ	-15.2731
ဧ	-15.2732
ဤ	-15.2733
ဦ	-15.2734
ဉ	-15.2735
္	-15.2736
ှ	-15.2737
